{"version":"1.0","truncation":null,"padding":null,"added_tokens":[{"id":0,"content":"[UNK]","single_word":false,"lstrip":false,"rstrip":false,"normalized":false,"special":true},{"id":1,"content":"[CLS]","single_word":false,"lstrip":false,"rstrip":false,"normalized":false,"special":true},{"id":2,"content":"[SEP]","single_word":false,"lstrip":false,"rstrip":false,"normalized":false,"special":true},{"id":3,"content":"[PAD]","single_word":false,"lstrip":false,"rstrip":false,"normalized":false,"special":true},{"id":4,"content":"[MASK]","single_word":false,"lstrip":false,"rstrip":false,"normalized":false,"special":true}],"normalizer":{"type":"Sequence","normalizers":[{"type":"Strip","strip_left":true,"strip_right":true},{"type":"NFC"}]},"pre_tokenizer":{"type":"ByteLevel","add_prefix_space":true,"trim_offsets":true,"use_regex":true},"post_processor":{"type":"TemplateProcessing","single":[{"SpecialToken":{"id":"[CLS]","type_id":0}},{"Sequence":{"id":"A","type_id":0}},{"SpecialToken":{"id":"[SEP]","type_id":0}}],"pair":[{"Sequence":{"id":"A","type_id":0}},{"Sequence":{"id":"B","type_id":1}}],"special_tokens":{"[CLS]":{"id":"[CLS]","ids":[1],"tokens":["[CLS]"]},"[SEP]":{"id":"[SEP]","ids":[2],"tokens":["[SEP]"]}}},"decoder":{"type":"ByteLevel","add_prefix_space":true,"trim_offsets":true,"use_regex":true},"model":{"type":"BPE","dropout":null,"unk_token":null,"continuing_subword_prefix":null,"end_of_word_suffix":null,"fuse_unk":false,"byte_fallback":false,"ignore_merges":false,"vocab":{"[UNK]":0,"[CLS]":1,"[SEP]":2,"[PAD]":3,"[MASK]":4,"!":5,"#":6,"$":7,"%":8,"&":9,"'":10,"(":11,")":12,"*":13,"+":14,",":15,"-":16,".":17,"/":18,"0":19,"1":20,"2":21,"3":22,"4":23,"5":24,"6":25,"7":26,"8":27,"9":28,":":29,";":30,"<":31,"=":32,">":33,"?":34,"@":35,"A":36,"B":37,"C":38,"D":39,"E":40,"F":41,"G":42,"H":43,"I":44,"J":45,"K":46,"L":47,"M":48,"N":49,"O":50,"P":51,"Q":52,"R":53,"S":54,"T":55,"U":56,"V":57,"W":58,"X":59,"Y":60,"Z":61,"_":62,"`":63,"a":64,"b":65,"c":66,"d":67,"e":68,"f":69,"g":70,"h":71,"i":72,"j":73,"k":74,"l":75,"m":76,"n":77,"o":78,"p":79,"q":80,"r":81,"s":82,"t":83,"u":84,"v":85,"w":86,"x":87,"y":88,"z":89,"~":90,"¡":91,"¢":92,"£":93,"¤":94,"¥":95,"¦":96,"§":97,"¨":98,"©":99,"ª":100,"«":101,"¬":102,"®":103,"¯":104,"°":105,"±":106,"²":107,"³":108,"´":109,"µ":110,"¶":111,"¸":112,"¹":113,"º":114,"»":115,"¼":116,"½":117,"¾":118,"¿":119,"Â":120,"Ã":121,"Ä":122,"Å":123,"È":124,"Î":125,"Ï":126,"Ð":127,"Ñ":128,"á":129,"â":130,"ã":131,"ï":132,"Ġ":133,"Ģ":134,"ģ":135,"Ĥ":136,"ĥ":137,"Ħ":138,"ħ":139,"Ĩ":140,"ĩ":141,"Ī":142,"ī":143,"Į":144,"į":145,"İ":146,"ı":147,"Ĳ":148,"ĳ":149,"Ĵ":150,"ĵ":151,"Ķ":152,"ĸ":153,"Ĺ":154,"ĺ":155,"Ļ":156,"Ľ":157,"ľ":158,"Ŀ":159,"ŀ":160,"Ł":161,"ł":162,"Ń":163,"he":164,"Ġt":165,"an":166,"in":167,"er":168,"Ġthe":169,"on":170,"Ġ,":171,"Ġ.":172,"Ġa":173,"ed":174,"or":175,"is":176,"and":177,"Ġin":178,"Ġw":179,"ar":180,"Ġo":181,"en":182,"Ġs":183,"al":184,"at":185,"as":186,"re":187,"Ġand":188,"Ġof":189,"it":190,"Ġb":191,"es":192,"Ġf":193,"ic":194,"Ġc":195,"ĠS":196,"ĠT":197,"ĠC":198,"ro":199,"ĠA":200,"Ġp":201,"Ġ1":202,"il":203,"ĠM":204,"ou":205,"Ġm":206,"ion":207,"ĠB":208,"le":209,"Ġto":210,"Ġis":211,"Ġd":212,"Ġwas":213,"am":214,"ĠI":215,"ing":216,"ent":217,"el":218,"Ġh":219,"ĠR":220,"ĠP":221,"st":222,"ĠH":223,"ĠThe":224,"ol":225,"om":226,"ĠL":227,"Ġl":228,"ĠD":229,"ri":230,"et":231,"ĠJ":232,"Ġre":233,"Ġ2":234,"ct":235,"ad":236,"ĠN":237,"Ġby":238,"Ġn":239,"ĠG":240,"Ġ19":241,"ur":242,"th":243,"ĠF":244,"iv":245,"un":246,"ir":247,"ch":248,"Ġ'":249,"ĠW":250,"ter":251,"Ġon":252,"us":253,"ay":254,"ĠE":255,"Ġfor":256,"ow":257,"ith":258,"ly":259,"em":260,"her":261,"ia":262,"ist":263,"ation":264,"ig":265,"ĠIn":266,"id":267,"Ġ20":268,"Ġe":269,"ac":270,"Ġ(":271,"Ġ)":272,"im":273,"ot":274,"Ġwith":275,"ut":276,"ĠK":277,"ec":278,"ers":279,"Ġg":280,"ag":281,"Ġas":282,"``":283,"Ġ``":284,"Ġth":285,"Ġ''":286,"ĠO":287,"ul":288,"oun":289,"ra":290,"rom":291,"os":292,"Ġst":293,"ce":294,"Ġ-":295,"ber":296,"ov":297,"um":298,"oc":299,"ian":300,"Ġal":301,"ill":302,"ew":303,"od":304,"ated":305,"ary":306,"Ġfrom":307,"ain":308,"est":309,"Ġwh":310,"ĠSt":311,"Ġv":312,"art":313,"all":314,"Ġpro":315,"Ġat":316,"op":317,"ity":318,"ĠV":319,"av":320,"ĠCh":321,"ip":322,"res":323,"Ġbe":324,"orn":325,"ort":326,"ĠU":327,"Ġhis":328,"Ġare":329,"Ġcon":330,"Ġcom":331,"Ġhe":332,"Ġan":333,"if":334,"ud":335,"ate":336,"Ġ201":337,"Ġ18":338,"ug":339,"ev":340,"ap":341,"ab":342,"ric":343,"ĠHe":344,"ub":345,"ran":346,"ies":347,"ak":348,"ast":349,"ard":350,"ĠIt":351,"ep":352,"ord":353,"ich":354,"land":355,"ish":356,"ear":357,"ant":358,"up":359,"Ġ200":360,"ge":361,"Ġpl":362,"ong":363,"ue":364,"uc":365,"ine":366,"ell":367,"ive":368,"mer":369,"ere":370,"Ġse":371,"ount":372,"ust":373,"Ġor":374,"ĠAn":375,"ond":376,"end":377,"ess":378,"our":379,"irst":380,"Ġ--":381,"Ġthat":382,"Ġit":383,"igh":384,"ial":385,"ical":386,"Ġwere":387,"so":388,"ame":389,"sh":390,"Ġch":391,"Ġun":392,"Ġfirst":393,"ore":394,"own":395,"man":396,"Ġde":397,"ther":398,"Ġr":399,"ie":400,"ey":401,"Ġborn":402,"ĠAl":403,"ork":404,"Ġalso":405,"qu":406,"ember":407,"ous":408,"ĠNew":409,"ect":410,"og":411,"ĠY":412,"rit":413,"Ġsp":414,"Ġ3":415,"ĠMar":416,"Ġhas":417,"Ġcomp":418,"ver":419,"ack":420,"ang":421,"ire":422,"ost":423,"ld":424,"ton":425,"ok":426,"ment":427,"Ġ6":428,"ĠTh":429,"Ġle":430,"Ġk":431,"orth":432,"iver":433,"Ġex":434,"ry":435,"Ġloc":436,"ĠUn":437,"Ġmar":438,"outh":439,"Ġ:":440,"ass":441,"age":442,"hen":443,"ĠRiver":444,"oh":445,"Ġplay":446,"tern":447,"ugh":448,"ool":449,"ater":450,"ound":451,"ied":452,"Ġy":453,"hed":454,"ĠLe":455,"Ġpart":456,"cl":457,"pp":458,"ction":459,"oll":460,"Ġwhich":461,"wo":462,"te":463,"ĠAr":464,"rict":465,"Ġte":466,"ree":467,"ational":468,"iz":469,"son":470,"rib":471,"ason":472,"Ġrep":473,"fter":474,"ĠRo":475,"istrict":476,"per":477,"Ġser":478,"Ġsh":479,"inal":480,"ried":481,"Ġro":482,"ubl":483,"ounty":484,"amp":485,"Ġar":486,"Ġsec":487,"ern":488,"Ġwho":489,"ited":490,"wn":491,"ah":492,"chool":493,"ĠJoh":494,"ff":495,"ition":496,"Ġus":497,"ign":498,"Ġbut":499,"ral":500,"ure":501,"gh":502,"Ġcl":503,"ren":504,"eral":505,"ten":506,"und":507,"ĠOn":508,"Ġhad":509,"ark":510,"ice":511,"ĠCounty":512,"se":513,"ru":514,"ily":515,"Ġlocated":516,"ts":517,"Ġ199":518,"Ġseason":519,"ik":520,"ib":521,"ĠEn":522,"Ġ4":523,"Ġsecond":524,"rop":525,"io":526,"ĠJohn":527,"ach":528,"Ġag":529,"der":530,"ress":531,"ĠSp":532,"Ġ198":533,"ide":534,"Ġ197":535,"Ġfam":536,"eb":537,"ĠInd":538,"ship":539,"aw":540,"Ġprod":541,"clud":542,"ild":543,"Ġapp":544,"ince":545,"arl":546,"ĠSh":547,"ex":548,"Ġtwo":549,"ave":550,"ph":551,"oin":552,"ased":553,"Ġson":554,"ted":555,"ome":556,"old":557,"meric":558,"rad":559,"ĠZ":560,"Ġ196":561,"Ġmarried":562,"Ġinclud":563,"port":564,"ished":565,"Ġmov":566,"we":567,"any":568,"Ġnew":569,"ace":570,"Ġj":571,"Ġele":572,"ribut":573,"ilm":574,"ile":575,"orm":576,"ĠAmeric":577,"Ġad":578,"ath":579,"ite":580,"oman":581,"Ġrec":582,"Ġcont":583,"ens":584,"Ġ17":585,"Ġform":586,"Ġ5":587,"iel":588,"to":589,"ates":590,"ball":591,"iam":592,"ĠAs":593,"way":594,"ctor":595,"Ġone":596,"ents":597,"Ġafter":598,"ob":599,"Ġfound":600,"enn":601,"Ġbec":602,"ley":603,"Ġreg":604,"cted":605,"Ġyear":606,"iss":607,"Ġpubl":608,"ĠFran":609,"Ġher":610,"ail":611,"Ġwrit":612,"Ġnot":613,"Ġ7":614,"ĠSc":615,"Ġdef":616,"oot":617,"Ġbro":618,"Ġres":619,"ina":620,"ĠCol":621,"Ġdistrict":622,"fer":623,"ans":624,"ara":625,"out":626,"eg":627,"ĠYork":628,"Ġfamily":629,"uced":630,"ann":631,"Ġdied":632,"urn":633,"ather":634,"ĠJan":635,"ations":636,"ind":637,"Ġab":638,"ĠAust":639,"Ġbu":640,"ence":641,"ĠEng":642,"augh":643,"ĠRoman":644,"Ġcomm":645,"Ġmus":646,"Ġdes":647,"Ġfilm":648,"Ġagain":649,"Ġits":650,"ick":651,"ĠShe":652,"ional":653,"Ġplayed":654,"Ġcan":655,"00":656,"ĠEl":657,"Ġkn":658,"here":659,"ual":660,"ĠNorth":661,"ĠWill":662,"Ġteam":663,"are":664,"Ġwon":665,"ory":666,"ĠCom":667,"Ġbet":668,"ative":669,"ight":670,"Ġlater":671,"ock":672,"pt":673,"Ġwork":674,"ivers":675,"resent":676,"ĠSouth":677,"ai":678,"enc":679,"cc":680,"Ġother":681,"Ġspec":682,"Ġper":683,"Ġthen":684,"Ġ194":685,"Ġprov":686,"uring":687,"ely":688,"Ġdire":689,"Ġhave":690,"Ġbo":691,"ĠIs":692,"ootball":693,"ins":694,"ween":695,"ont":696,"Ġcent":697,"Ġschool":698,"ult":699,"ĠEd":700,"ĠCity":701,"Ġim":702,"ime":703,"ollow":704,"ft":705,"ames":706,"gan":707,"ake":708,"Ġsc":709,"ved":710,"Ġri":711,"anc":712,"ĠUnited":713,"Ġstud":714,"ĠThis":715,"Ġtribut":716,"Ġ195":717,"ĠGe":718,"ĠPh":719,"bert":720,"Ġret":721,"ier":722,"ĠCl":723,"ague":724,"ĠGer":725,"ash":726,"Ġbetween":727,"ood":728,"ris":729,"Ġused":730,"az":731,"Ġ16":732,"rew":733,"Ġwhen":734,"ions":735,"ett":736,"ough":737,"Ġoff":738,"Ġtributary":739,"ĠPro":740,"Ġnorth":741,"oy":742,"Ġwhere":743,"aughter":744,"ix":745,"ĠTown":746,"Ġmoved":747,"Ġ193":748,"rans":749,"ĠMay":750,"ived":751,"emb":752,"red":753,"ĠJu":754,"Ġsouth":755,"Ġformer":756,"Ġall":757,"eth":758,"ĠQ":759,"Ġknown":760,"ĠCan":761,"att":762,"ne":763,"ĠWilliam":764,"ĠCon":765,"ĠBar":766,"ĠAmerican":767,"Ġfollow":768,"ors":769,"rid":770,"Ġrele":771,"Ġvill":772,"Ġcons":773,"ĠCal":774,"Ġalb":775,"ounc":776,"isc":777,"Ġ%":778,"Ã©":779,"ield":780,"ron":781,"eter":782,"ept":783,"ese":784,"Ġ192":785,"Ġbeen":786,"Ġunder":787,"aj":788,"Ġtheir":789,"Ġwritten":790,"ĠGerman":791,"Ġagainst":792,"Ġbecame":793,"ille":794,"Ġdaughter":795,"ĠBl":796,"ered":797,"uss":798,"Ġalbum":799,"ĠFor":800,"ĠRomania":801,"ward":802,"Ġthree":803,"au":804,"Ġpublished":805,"ĠAustral":806,"les":807,"Ġproduced":808,"Ġthis":809,"Ġman":810,"overn":811,"olog":812,"ury":813,"Ġpre":814,"ae":815,"icip":816,"ĠCar":817,"ĠJun":818,"ee":819,"ings":820,"Ġonly":821,"Ġ9":822,"ĠAug":823,"Ġseries":824,"other":825,"ula":826,"ott":827,"ale":828,"ever":829,"Ġmusic":830,"uary":831,"ister":832,"roup":833,"ict":834,"Ġind":835,"Ġup":836,"ĠAt":837,"Ġnear":838,"ould":839,"ĠMarch":840,"fore":841,"Ġact":842,"ĠAugust":843,"ram":844,"Ġover":845,"ĠGeor":846,"rent":847,"Ġfinal":848,"ĠJanuary":849,"ĠAp":850,"Ġcur":851,"Ġreleased":852,"ular":853,"Ġme":854,"pen":855,"able":856,"Ġtrans":857,"ĠSw":858,"Ġ10":859,"Ġfour":860,"ious":861,"Ġatt":862,"ham":863,"Ġ8":864,"ĠSept":865,"ĠAd":866,"ĠNov":867,"ĠAm":868,"ident":869,"Ġ191":870,"ĠAnd":871,"ĠGre":872,"ĠSeptember":873,"iversity":874,"ĠOct":875,"Ġfl":876,"Ġvillage":877,"ĠDec":878,"oci":879,"ife":880,"ada":881,"Ġsing":882,"Ġco":883,"Ġwhile":884,"ĠHar":885,"evel":886,"Ġdefe":887,"Ġtr":888,"Ġchild":889,"Ġbl":890,"Ġgen":891,"ĠJuly":892,"Ġyears":893,"ober":894,"ĠLeague":895,"lin":896,"Ġed":897,"Ġcity":898,"uch":899,"uk":900,"Ġrepl":901,"ĠOctober":902,"Ġfather":903,"ird":904,"yn":905,"Ġmost":906,"ĠMc":907,"Ġhim":908,"Ġmod":909,"ĠBro":910,"ĠGu":911,"estern":912,"form":913,"Ġsm":914,"ĠSchool":915,"ĠEu":916,"ril":917,"ĠBrit":918,"inn":919,"ank":920,"Ġpol":921,"Ġsub":922,"Ġrel":923,"che":924,"ilt":925,"Ġshe":926,"ĠDecember":927,"air":928,"rim":929,"evelop":930,"inc":931,"Ġ15":932,"Ġmain":933,"Ġbrother":934,"ĠPark":935,"Ġlar":936,"Ġrecord":937,"aced":938,"one":939,"Ġsup":940,"Ġtime":941,"ĠCo":942,"ĠNational":943,"ĠDistrict":944,"Ġra":945,"ouse":946,"Ġopen":947,"ĠAir":948,"ĠBe":949,"igned":950,"ĠPar":951,"rist":952,"Ġcre":953,"Ġname":954,"Ġfootball":955,"Ġreturn":956,"ean":957,"ĠApril":958,"ics":959,"Ġbefore":960,"Ġsev":961,"ros":962,"ose":963,"ons":964,"ĠTownship":965,"Ġduring":966,"Ġev":967,"ision":968,"ĠWh":969,"Ġ2011":970,"Ġinto":971,"Ġph":972,"ĠItal":973,"Ġspecies":974,"ington":975,"Ġdevelop":976,"Ġsmall":977,"Ġthey":978,"ĠState":979,"ĠNovember":980,"Ġexp":981,"ĠJune":982,"ĠEurop":983,"ys":984,"ĠAng":985,"Ġorig":986,"Ġmore":987,"til":988,"Ġtra":989,"ery":990,"lor":991,"Ġsong":992,"ase":993,"Ġqu":994,"osed":995,"eng":996,"Ġ;":997,"Ġstation":998,"apan":999,"Ġcol":1000,"ality":1001,"erv":1002,"ĠDav":1003,"oss":1004,"ĠAss":1005,"Ã¡":1006,"Ġcurrent":1007,"ler":1008,"ĠIsland":1009,"ĠDan":1010,"ural":1011,"ket":1012,"oth":1013,"ade":1014,"ĠFeb":1015,"ruary":1016,"ĠFebruary":1017,"ford":1018,"orld":1019,"Ġthere":1020,"rough":1021,"ĠUniversity":1022,"ific":1023,"ists":1024,"aul":1025,"ĠPhil":1026,"erm":1027,"ĠMich":1028,"Ġrem":1029,"yst":1030,"amed":1031,"ĠJapan":1032,"Ġnort":1033,"by":1034,"Ġinter":1035,"ĠEngland":1036,"ject":1037,"ĠWal":1038,"por":1039,"ĠHis":1040,"Ġcomple":1041,"unicip":1042,"alled":1043,"ĠDe":1044,"urg":1045,"ĠStates":1046,"yp":1047,"que":1048,"Ġoffic":1049,"Ġ12":1050,"shire":1051,"Ġrepresent":1052,"els":1053,"cess":1054,"rand":1055,"Ġstate":1056,"Ġ11":1057,"ĠAfter":1058,"iforn":1059,"ĠCaliforn":1060,"umb":1061,"ĠCalifornia":1062,"Ġlead":1063,"ert":1064,"ondon":1065,"ĠSan":1066,"Ġ190":1067,"Ġarea":1068,"ĠThom":1069,"ĠAustralia":1070,"erg":1071,"Ġart":1072,"ĠHigh":1073,"Ġbuilt":1074,"Ġac":1075,"ville":1076,"Ġ2015":1077,"ĠLondon":1078,"ays":1079,"Ġjoin":1080,"Ġtown":1081,"Ġpar":1082,"Ġdefeated":1083,"erson":1084,"ĠIndian":1085,"umber":1086,"Ġ188":1087,"Ġserv":1088,"ks":1089,"fess":1090,"ĠMal":1091,"Ġ14":1092,"Ġthird":1093,"Ġgroup":1094,"ode":1095,"ony":1096,"led":1097,"round":1098,"ĠCharl":1099,"ĠBritish":1100,"Ġabout":1101,"ternational":1102,"Ġnow":1103,"Ġuntil":1104,"ĠWar":1105,"Ġfounded":1106,"Ġso":1107,"angu":1108,"Ġincluding":1109,"Ġgovern":1110,"ĠRobert":1111,"Ġann":1112,"ĠAf":1113,"Ġ2008":1114,"my":1115,"Ġriver":1116,"Ġoper":1117,"owever":1118,"ampion":1119,"act":1120,"Ġend":1121,"ise":1122,"Ġthrough":1123,"Ġappear":1124,"ĠMary":1125,"ĠKing":1126,"ĠWest":1127,"Ġprovince":1128,"ized":1129,"ĠCent":1130,"ico":1131,"Ġadd":1132,"Ġregion":1133,"ana":1134,"Ġ2012":1135,"ĠRuss":1136,"yl":1137,"ement":1138,"Ġoriginal":1139,"arly":1140,"Ġhist":1141,"Ġ186":1142,"Ġwest":1143,"ets":1144,"Ġdesc":1145,"ance":1146,"Ġtrad":1147,"ĠBra":1148,"lege":1149,"ĠKh":1150,"ital":1151,"ĠUS":1152,"Ġleft":1153,"Ġcalled":1154,"hern":1155,"ner":1156,"ower":1157,"ike":1158,"Ġlangu":1159,"order":1160,"Ġchildren":1161,"Ġreplaced":1162,"ax":1163,"Ġmon":1164,"Ġeast":1165,"Ġlocal":1166,"ism":1167,"Ġout":1168,"ows":1169,"ple":1170,"Ġown":1171,"Ġass":1172,"astern":1173,"Ġ2010":1174,"Ġsold":1175,"ĠGeorge":1176,"ĠJames":1177,"ney":1178,"Ġthan":1179,"ĠIndia":1180,"Ġinv":1181,"Ġcap":1182,"ĠBel":1183,"af":1184,"outher":1185,"outhern":1186,"ities":1187,"ĠComm":1188,"Ġband":1189,"Ġhigh":1190,"ĠAll":1191,"lish":1192,"Ġwould":1193,"rat":1194,"als":1195,"ĠTe":1196,"Ġ2014":1197,"ĠAle":1198,"Ġmunicip":1199,"ains":1200,"Ġ189":1201,"ĠCor":1202,"Ġsome":1203,"ston":1204,"reek":1205,"ĠThere":1206,"ĠThomas":1207,"yd":1208,"uit":1209,"ĠEm":1210,"Ġdirected":1211,"riv":1212,"ystem":1213,"Ġwife":1214,"ĠCanada":1215,"ĠDavid":1216,"stit":1217,"ĠGen":1218,"ces":1219,"Ġent":1220,"Ġmed":1221,"Ġep":1222,"ĠChrist":1223,"Ġvers":1224,"vel":1225,"Ġacc":1226,"ful":1227,"hem":1228,"Ġlong":1229,"Ġsame":1230,"ĠVal":1231,"Ġsur":1232,"Ġ13":1233,"ross":1234,"uth":1235,"ĠRich":1236,"ull":1237,"Ġ185":1238,"Ġint":1239,"ĠMan":1240,"Ġmany":1241,"ipp":1242,"Ġair":1243,"Ġcommun":1244,"ĠMin":1245,"aus":1246,"ient":1247,"ĠSm":1248,"Ġmil":1249,"resident":1250,"raph":1251,"eal":1252,"ium":1253,"ĠMus":1254,"riend":1255,"idae":1256,"Ġ2013":1257,"uck":1258,"ĠMart":1259,"Ġnational":1260,"ives":1261,"Ġdif":1262,"ster":1263,"ĠPol":1264,"sp":1265,"ĠAb":1266,"reet":1267,"ether":1268,"ael":1269,"ĠThey":1270,"ĠPaul":1271,"ger":1272,"ined":1273,"Ġmet":1274,"rench":1275,"ĠEnglish":1276,"ĠGl":1277,"ĠLake":1278,"Ġrece":1279,"ene":1280,"Ġpop":1281,"ĠFrench":1282,"ĠAfric":1283,"Ġfollowing":1284,"ars":1285,"ret":1286,"Ġsuc":1287,"Ġearly":1288,"Ġmember":1289,"ĠPl":1290,"hel":1291,"ĠEx":1292,"field":1293,"Ġsim":1294,"ove":1295,"ĠMor":1296,"ĠRep":1297,"Ġnumber":1298,"ĠSe":1299,"nect":1300,"pl":1301,"ople":1302,"Ġ2016":1303,"ĠAngel":1304,"ble":1305,"ĠHen":1306,"ures":1307,"ĠMex":1308,"ĠPart":1309,"ĠNor":1310,"Ġnamed":1311,"ats":1312,"Ġtook":1313,"idd":1314,"Ġthem":1315,"Ġdep":1316,"Ġvar":1317,"Ġmin":1318,"ator":1319,"ĠPeter":1320,"Ġprodu":1321,"ĠLou":1322,"ute":1323,"ĠEast":1324,"Ġ2009":1325,"Ġcentury":1326,"ines":1327,"Ġdec":1328,"ended":1329,"ius":1330,"ck":1331,"Ġpolit":1332,"ĠPort":1333,"bor":1334,"Ġsett":1335,"Ġam":1336,"ĠCollege":1337,"rum":1338,"Ġen":1339,"Ġseveral":1340,"ĠBo":1341,"ially":1342,"na":1343,"ained":1344,"ically":1345,"Ġ30":1346,"ung":1347,"Ġopened":1348,"omet":1349,"ata":1350,"Ġpe":1351,"ste":1352,"Ġmanag":1353,"co":1354,"urch":1355,"ridge":1356,"ĠMount":1357,"Ġprofess":1358,"ena":1359,"Ġ2007":1360,"ampionship":1361,"ĠMad":1362,"ired":1363,"Ġmemb":1364,"ago":1365,"Ġlim":1366,"ĠOr":1367,"amb":1368,"Ġdiffer":1369,"ĠMon":1370,"ĠGermany":1371,"ander":1372,"ouncil":1373,"ĠEurope":1374,"Ġannounc":1375,"ĠPer":1376,"aid":1377,"Ġsuch":1378,"Ġsystem":1379,"Ġmade":1380,"Ġ2006":1381,"Ġtit":1382,"Ġ187":1383,"Ġwell":1384,"Ġbased":1385,"ym":1386,"Ġdist":1387,"Ġgre":1388,"Ġlarge":1389,"ourn":1390,"ctions":1391,"Ġwe":1392,"ane":1393,"Ġsouthern":1394,"Ġdisc":1395,"omb":1396,"Ġmother":1397,"ke":1398,"min":1399,"ording":1400,"Ġbegan":1401,"Ġplace":1402,"ĠLa":1403,"ka":1404,"ĠTex":1405,"uel":1406,"Ġwill":1407,"rol":1408,"ĠBay":1409,"Ġrail":1410,"itt":1411,"imes":1412,"ĠRoad":1413,"Ġalong":1414,"wood":1415,"Ġreturned":1416,"ĠX":1417,"ublic":1418,"ĠAg":1419,"let":1420,"ĠWhen":1421,"Ġshort":1422,"Ġfe":1423,"ĠHill":1424,"ters":1425,"Ġinf":1426,"Ġred":1427,"Ġrecorded":1428,"ĠBr":1429,"ĠCharles":1430,"ĠHol":1431,"ission":1432,"Ġmunicipality":1433,"Ġland":1434,"Ġbook":1435,"ĠSch":1436,"ĠAmerica":1437,"ociation":1438,"ature":1439,"ĠHer":1440,"ya":1441,"row":1442,"Ġmembers":1443,"ĠPr":1444,"lu":1445,"ĠBas":1446,"ĠStreet":1447,"Ġgeneral":1448,"ĠRoy":1449,"Ġcreated":1450,"Ġsix":1451,"Ġline":1452,"Ġcompany":1453,"uated":1454,"ania":1455,"ĠReg":1456,"ĠPat":1457,"Ġfriend":1458,"ages":1459,"ama":1460,"ĠRail":1461,"Ġ29":1462,"Ġnorthern":1463,"Ġold":1464,"Ġgovernment":1465,"Ġsn":1466,"Ġsupport":1467,"iet":1468,"Ġsince":1469,"ĠLos":1470,"rated":1471,"ÃŃ":1472,"Ġpain":1473,"Ġrepresented":1474,"hes":1475,"esh":1476,"Ġreceived":1477,"heast":1478,"abeth":1479,"rote":1480,"Ġpresent":1481,"Ġ2017":1482,"ĠRichard":1483,"ĠSwed":1484,"Ġinc":1485,"ĠAlex":1486,"Ġstart":1487,"Ġannounced":1488,"ians":1489,"ĠAngeles":1490,"ki":1491,"ĠMichael":1492,"Ġdescrib":1493,"ica":1494,"Ġprom":1495,"med":1496,"ĠRe":1497,"rig":1498,"ray":1499,"ĠItaly":1500,"Ġclass":1501,"Ġne":1502,"Ġserved":1503,"Ġest":1504,"ones":1505,"Ġ21":1506,"ior":1507,"rod":1508,"Ġlanguage":1509,"Ġlist":1510,"arn":1511,"Ġwhite":1512,"Ġformula":1513,"ĠBer":1514,"Ġdifferent":1515,"Ġdeath":1516,"Ã¼":1517,"Ġvis":1518,"Ġjoined":1519,"Ġ0":1520,"Ġwrote":1521,"Ġepis":1522,"ĠTur":1523,"ĠComp":1524,"Ġschools":1525,"ĠSant":1526,"ointed":1527,"Ġyoun":1528,"ĠFrance":1529,"ract":1530,"iev":1531,"arm":1532,"Ġorgan":1533,"Ġsuccess":1534,"ĠTexas":1535,"ĠWorld":1536,"Ġfun":1537,"Ġmat":1538,"chan":1539,"vi":1540,"ĠBorn":1541,"ĠJack":1542,"Ġgame":1543,"ology":1544,"Ġdeveloped":1545,"ĠCreek":1546,"ĠJos":1547,"ĠCouncil":1548,"ĠFootball":1549,"Ġboth":1550,"gin":1551,"ino":1552,"elf":1553,"ĠParty":1554,"ally":1555,"ĠMil":1556,"ief":1557,"Ġinclude":1558,"zil":1559,"Ġdo":1560,"Ġdiv":1561,"Ġcontin":1562,"ĠFranc":1563,"ĠAfrica":1564,"Ġprog":1565,"Ġblack":1566,"ox":1567,"ating":1568,"Ġtyp":1569,"Ġcount":1570,"ments":1571,"Ġincluded":1572,"Äĥ":1573,"Ġlast":1574,"Ġdis":1575,"ĠOl":1576,"ring":1577,"Ġversion":1578,"ĠMel":1579,"Ġ2005":1580,"lev":1581,"Ġelect":1582,"Ġrailway":1583,"ĠMexico":1584,"ĠMe":1585,"ution":1586,"Ġpeople":1587,"Ġheld":1588,"ĠQue":1589,"Ġtrue":1590,"ĠFlor":1591,"Ġappointed":1592,"Ġworked":1593,"Ġtw":1594,"Ġthese":1595,"ĠJo":1596,"ĠAssociation":1597,"ĠScott":1598,"ĠSl":1599,"ald":1600,"ria":1601,"ĠBrazil":1602,"Ġsingle":1603,"ĠHenry":1604,"Ġfin":1605,"ĠSer":1606,"ible":1607,"ajor":1608,"epend":1609,"ograph":1610,"ffect":1611,"ĠEliz":1612,"ries":1613,"ĠSmith":1614,"ĠProv":1615,"Ġisland":1616,"Ġhistor":1617,"ĠRed":1618,"burg":1619,"Ġsnail":1620,"ma":1621,"Ġem":1622,"ĠCap":1623,"ency":1624,"tal":1625,"ele":1626,"abl":1627,"Ġwestern":1628,"Ġprim":1629,"Ġwater":1630,"Ã¶":1631,"itz":1632,"ĠTom":1633,"ersey":1634,"gether":1635,"Ġtogether":1636,"Ġprofessional":1637,"ole":1638,"ope":1639,"aract":1640,"cept":1641,"Ġcharact":1642,"Ġlived":1643,"Ġcomposed":1644,"uthor":1645,"Ġtitle":1646,"ishop":1647,"Ġpublic":1648,"ĠElizabeth":1649,"Ġel":1650,"Ġ181":1651,"Ġsol":1652,"urb":1653,"Ġcame":1654,"Ġmodern":1655,"Ġbas":1656,"ve":1657,"Ġpo":1658,"itions":1659,"ices":1660,"ĠChina":1661,"ified":1662,"ured":1663,"Ġbel":1664,"dom":1665,"ĠQu":1666,"ĠInternational":1667,"west":1668,"Ġran":1669,"usk":1670,"Ġuse":1671,"Ġcor":1672,"iber":1673,"Ġob":1674,"Ġsister":1675,"Ġlost":1676,"ided":1677,"ĠChic":1678,"Ġbus":1679,"Ġcompleted":1680,"ĠScot":1681,"Ġprev":1682,"Ġback":1683,"ĠWe":1684,"ants":1685,"Ġvery":1686,"ĠGeneral":1687,"ised":1688,"gar":1689,"Ġsea":1690,"Ġepisode":1691,"ha":1692,"Ġrun":1693,"Ġgrew":1694,"Ġnon":1695,"ĠSim":1696,"ĠAv":1697,"Ġhome":1698,"gest":1699,"ĠFrank":1700,"Ġ2003":1701,"ĠMed":1702,"Ġround":1703,"Ġelected":1704,"ĠPe":1705,"ĠFrom":1706,"ĠSam":1707,"bour":1708,"ĠCong":1709,"Ġappeared":1710,"ually":1711,"ĠEdward":1712,"ta":1713,"ona":1714,"ĠAcc":1715,"ĠPenn":1716,"onom":1717,"Ġ28":1718,"Ġcurrently":1719,"Ġgrand":1720,"ĠMac":1721,"formed":1722,"ĠRec":1723,"Ġprogram":1724,"ĠChicago":1725,"Ġcamp":1726,"ĠMet":1727,"Ġarch":1728,"ĠMa":1729,"its":1730,"ĠTor":1731,"rick":1732,"ari":1733,"ĠBh":1734,"Ġbuild":1735,"go":1736,"Ġoften":1737,"ĠDiv":1738,"ĠCentral":1739,"sc":1740,"ida":1741,"ĠValley":1742,"ĠRepublic":1743,"ĠSal":1744,"Ġshow":1745,"ght":1746,"Ġgast":1747,"Ġdescribed":1748,"ĠJersey":1749,"ĠRob":1750,"Ġconf":1751,"Ġconst":1752,"Ġcare":1753,"ĠSu":1754,"Ġplayer":1755,"ords":1756,"ĠGeorg":1757,"ij":1758,"rem":1759,"ĠPal":1760,"ĠVir":1761,"ival":1762,"ĠDuring":1763,"Ġnov":1764,"ropod":1765,"Ġgastropod":1766,"rd":1767,"ĠDon":1768,"Ġrest":1769,"vers":1770,"alf":1771,"ĠIl":1772,"ĠZeal":1773,"Ġtem":1774,"itary":1775,"Ġmoll":1776,"ĠDun":1777,"ĠSup":1778,"Ġbeing":1779,"Ġ25":1780,"ĠLouis":1781,"ĠMass":1782,"Ġconnect":1783,"ĠArg":1784,"ĠSir":1785,"ĠTr":1786,"Ġactor":1787,"oint":1788,"ĠZealand":1789,"ues":1790,"ĠWash":1791,"Ġcentral":1792,"ĠHouse":1793,"Ġ31":1794,"ĠCongress":1795,"though":1796,"Ġext":1797,"ĠTim":1798,"Ġtotal":1799,"Ġguit":1800,"Ġ2002":1801,"Ġfive":1802,"ĠIr":1803,"Ġ23":1804,"ides":1805,"ĠMont":1806,"Ġ26":1807,"Ġdirector":1808,"Ġinflu":1809,"Ġref":1810,"Ġ184":1811,"ĠGovern":1812,"olk":1813,"Ġno":1814,"ulation":1815,"Ġ24":1816,"ĠGal":1817,"Ġrole":1818,"Ġimport":1819,"ĠSen":1820,"Ġclub":1821,"Ġterm":1822,"Ġsit":1823,"Ġ27":1824,"ached":1825,"agn":1826,"Ġled":1827,"iff":1828,"bury":1829,"ĠHowever":1830,"omin":1831,"lic":1832,"ued":1833,"Ġâ":1834,"itional":1835,"Ġofficial":1836,"Ġprevious":1837,"ĠBur":1838,"ĠItalian":1839,"tar":1840,"ately":1841,"ĠCarl":1842,"Ġ22":1843,"ext":1844,"Ġcar":1845,"Ġhowever":1846,"ĠRock":1847,"eph":1848,"ala":1849,"Ġcommon":1850,"Ġtrack":1851,"aster":1852,"000":1853,"Ġfollowed":1854,"ĠRussian":1855,"ablished":1856,"ĠPet":1857,"Ġattack":1858,"Ġmay":1859,"ĠEv":1860,"ranch":1861,"ĠGar":1862,"ĠWil":1863,"ĠMer":1864,"line":1865,"rian":1866,"adem":1867,"Ġequ":1868,"ĠDaniel":1869,"enth":1870,"ink":1871,"over":1872,"Ġworld":1873,"ases":1874,"ĠTurk":1875,"Ġwent":1876,"Ġocc":1877,"ĠVirgin":1878,"Ġsigned":1879,"Ġcompet":1880,"yle":1881,"ush":1882,"Ġkill":1883,"ĠWhite":1884,"ĠJapanese":1885,"Ġcommunity":1886,"Ġguitar":1887,"Ġ183":1888,"Ġleg":1889,"Ã³":1890,"Ġsaid":1891,"ĠLu":1892,"Ġwithin":1893,"Ġsum":1894,"ĠAccording":1895,"ament":1896,"Ġeffect":1897,"ĠVict":1898,"Ġhead":1899,"ĠArm":1900,"Ġhouse":1901,"Ġeastern":1902,"ody":1903,"Ġrad":1904,"ently":1905,"ĠJim":1906,"Ġmarine":1907,"ops":1908,"Ġworks":1909,"oph":1910,"Ġaround":1911,"ĠSec":1912,"ĠHam":1913,"anish":1914,"Ġareas":1915,"ruct":1916,"reg":1917,"Ġdesign":1918,"Ġintrod":1919,"ĠÃ":1920,"ively":1921,"arliam":1922,"Ġmollusk":1923,"ois":1924,"iddle":1925,"ĠForm":1926,"attle":1927,"BC":1928,"Ġage":1929,"Ġperson":1930,"oma":1931,"Ġhel":1932,"ĠAnn":1933,"Ġren":1934,"ĠWashington":1935,"ells":1936,"ought":1937,"ared":1938,"artment":1939,"Ġprot":1940,"ĠLeg":1941,"ĠII":1942,"ĠAustralian":1943,"arliament":1944,"ati":1945,"ĠMiss":1946,"orts":1947,"Ġestablished":1948,"ĠMartin":1949,"side":1950,"Ġpos":1951,"Ġsinger":1952,"ze":1953,"ĠPresident":1954,"rie":1955,"ĠSpain":1956,"Ġappro":1957,"Ġtour":1958,"overed":1959,"work":1960,"Ġ_":1961,"ĠAc":1962,"app":1963,"Ġauthor":1964,"Ġoriginally":1965,"ĠDel":1966,"ocial":1967,"ĠChin":1968,"ĠCanad":1969,"tain":1970,"isl":1971,"Ġlaw":1972,"aper":1973,"ards":1974,"yan":1975,"iness":1976,"Ġsound":1977,"ĠParis":1978,"Ġinternational":1979,"ĠArch":1980,"ĠEuropean":1981,"du":1982,"ote":1983,"Ġstarted":1984,"olic":1985,"ecut":1986,"ĠVictor":1987,"chn":1988,"ĠWestern":1989,"ĠRailway":1990,"ĠDr":1991,"ique":1992,"Ġ2000":1993,"Ġborder":1994,"ĠMo":1995,"ola":1996,"Ġ182":1997,"Ġ2001":1998,"ĠâĢ":1999,"arg":2000,"ĠJew":2001,"Ġ2004":2002,"Ġwin":2003,"ĠColumb":2004,"press":2005,"ĠSyd":2006,"etic":2007,"Ġsimil":2008,"ript":2009,"Ġ1999":2010,"Ġside":2011,"ility":2012,"ĠSydney":2013,"ca":2014,"Ġphys":2015,"ĠGroup":2016,"ellow":2017,"ĠWilliams":2018,"ĠBlack":2019,"lo":2020,"Ġhalf":2021,"Ġmonth":2022,"ĠRoyal":2023,"Ġcareer":2024,"Ġwee":2025,"ocrat":2026,"epar":2027,"Ġdistribut":2028,"Ġfunction":2029,"Ġpass":2030,"ĠChampionship":2031,"Ġcharacter":2032,"ĠBost":2033,"avy":2034,"Ġmiles":2035,"den":2036,"ĠThese":2037,"ĠFred":2038,"ĠAirport":2039,"ause":2040,"ĠFlorida":2041,"ĠVirginia":2042,"Ġstr":2043,"Ġ1970":2044,"Ġfourth":2045,"minist":2046,"ker":2047,"ĠSar":2048,"ĠSpanish":2049,"ĠArgent":2050,"Ġhum":2051,"ĠGra":2052,"ĠChief":2053,"ĠCarol":2054,"Ġnext":2055,"ced":2056,"Ġstill":2057,"ferred":2058,"Ġstudents":2059,"ĠCompany":2060,"Ġprimary":2061,"hi":2062,"Ġcult":2063,"Ġorder":2064,"ĠSo":2065,"ĠMur":2066,"ĠOk":2067,"Ġconc":2068,"Ġperformed":2069,"Ġeach":2070,"ĠBrook":2071,"ĠBy":2072,"ĠBen":2073,"Ġday":2074,"ĠRam":2075,"rea":2076,"Ġbi":2077,"stead":2078,"ĠSing":2079,"ĠNe":2080,"Ġactiv":2081,"ĠBrown":2082,"Ġformed":2083,"Ġstat":2084,"Ġactress":2085,"ĠWales":2086,"uri":2087,"Ġfa":2088,"ĠMatt":2089,"ĠScotland":2090,"ĠDivision":2091,"Ġnovel":2092,"Ġcour":2093,"ĠJe":2094,"ison":2095,"ingham":2096,"ential":2097,"ĠJul":2098,"Ġregional":2099,"Ġcoast":2100,"itect":2101,"nd":2102,"Ġtak":2103,"Ġteams":2104,"ĠCorpor":2105,"ll":2106,"Ġchang":2107,"Ġstudied":2108,"Ġconsid":2109,"ĠCanadian":2110,"cle":2111,"Ġport":2112,"ps":2113,"olit":2114,"Ġparents":2115,"ĠBoston":2116,"Ġvia":2117,"Ġdesigned":2118,"Ġattended":2119,"ĠAdam":2120,"Ġburied":2121,"ĠChinese":2122,"for":2123,"ras":2124,"ani":2125,"Ġcounty":2126,"ĠMah":2127,"ches":2128,"Ġif":2129,"Ġsepar":2130,"berg":2131,"Ġindepend":2132,"ĠAlexander":2133,"anda":2134,"ĠSte":2135,"ĠStev":2136,"Ġparts":2137,"Ġbusiness":2138,"ura":2139,"Ġec":2140,"ĠBelg":2141,"itor":2142,"igan":2143,"ĠFormula":2144,"ty":2145,"Ġsout":2146,"ady":2147,"Ġwriter":2148,"Ġlimp":2149,"ĠChris":2150,"Ġparticip":2151,"Ġsimilar":2152,"Ġsign":2153,"Ġgl":2154,"Ġcolle":2155,"ĠAnton":2156,"Ġroad":2157,"ves":2158,"arch":2159,"ĠKhan":2160,"Ġpopular":2161,"BA":2162,"emocrat":2163,"Ġcompos":2164,"ĠFin":2165,"ĠPenns":2166,"ety":2167,"ĠGold":2168,"ĠFl":2169,"ĠUt":2170,"ansas":2171,"Ġimportant":2172,"self":2173,"irl":2174,"ĠDep":2175,"Ġ180":2176,"anche":2177,"Ġeduc":2178,"ylv":2179,"ĠCorporation":2180,"ios":2181,"ĠJac":2182,"ĠGreen":2183,"ĠJoseph":2184,"ĠStation":2185,"aces":2186,"ometimes":2187,"aun":2188,"Ġval":2189,"Ġill":2190,"Ġsocial":2191,"Ġstand":2192,"Ġanother":2193,"Ġevent":2194,"ĠJewish":2195,"reland":2196,"Ġ1976":2197,"ensus":2198,"rison":2199,"Ġgreat":2200,"ĠBal":2201,"Ġgrad":2202,"ĠStep":2203,"Ġrev":2204,"unn":2205,"ĠKingdom":2206,"Ġarchitect":2207,"Ġvi":2208,"tic":2209,"win":2210,"Ġcross":2211,"ĠCamp":2212,"Ġpost":2213,"quired":2214,"ological":2215,"ĠAtl":2216,"ĠRou":2217,"ĠLat":2218,"ĠWith":2219,"usc":2220,"rab":2221,"Ġproject":2222,"Ġtrain":2223,"yer":2224,"Ġinit":2225,"Ġsw":2226,"Ġcod":2227,"Ġgames":2228,"Ġmanager":2229,"li":2230,"ĠCle":2231,"ences":2232,"bourne":2233,"kins":2234,"ĠSom":2235,"Ġposs":2236,"ittle":2237,"ĠProvince":2238,"ederal":2239,"iter":2240,"ĠWood":2241,"astle":2242,"Ġelection":2243,"ored":2244,"raft":2245,"era":2246,"ĠBu":2247,"lym":2248,"alls":2249,"ketball":2250,"ĠTal":2251,"Ġpr":2252,"Ġmajor":2253,"ental":2254,"Ġadminist":2255,"ĠUSA":2256,"levision":2257,"ĠStephen":2258,"Ġbest":2259,"etts":2260,"unt":2261,"Ġmeet":2262,"Ġsettled":2263,"ylvania":2264,"Ġpresident":2265,"illy":2266,"ĠBill":2267,"Ġhig":2268,"ĠUnion":2269,"ĠAndrew":2270,"Ġkilled":2271,"hew":2272,"ĠOt":2273,"Ġedition":2274,"eum":2275,"ĠCro":2276,"usetts":2277,"achusetts":2278,"ĠMassachusetts":2279,"ethod":2280,"aim":2281,"ĠAlb":2282,"ience":2283,"enue":2284,"ĠAz":2285,"ĠIreland":2286,"ĠRad":2287,"Ġactive":2288,"ĠMcC":2289,"ched":2290,"zo":2291,"Ġmilitary":2292,"ĠAtlant":2293,"ook":2294,"ota":2295,"day":2296,"ĠChurch":2297,"Ġspecial":2298,"ĠLuc":2299,"Ġhistory":2300,"ĠSweden":2301,"ĠPennsylvania":2302,"sy":2303,"ĠCup":2304,"ĠBut":2305,"Ġresp":2306,"erry":2307,"Ġmerg":2308,"osp":2309,"ĠAlthough":2310,"Ġdevelopment":2311,"ĠPhilipp":2312,"Ġsituated":2313,"ician":2314,"Ġmount":2315,"ĠKn":2316,"ights":2317,"Ġpopulation":2318,"kin":2319,"Ã¤":2320,"Ġopp":2321,"Ġ1968":2322,"Ġnortheast":2323,"ms":2324,"atural":2325,"Ġpriv":2326,"Ġstudio":2327,"ĠMinister":2328,"yric":2329,"ization":2330,"isco":2331,"cer":2332,"ked":2333,"off":2334,"Ġlate":2335,"Ġsometimes":2336,"Ġlive":2337,"ĠJean":2338,"ogn":2339,"Ġwar":2340,"Ġstyle":2341,"ĠMark":2342,"ĠSa":2343,"ĠMichigan":2344,"Ġsurv":2345,"iod":2346,"rest":2347,"roy":2348,"Ġdest":2349,"Ġexamp":2350,"ĠLee":2351,"Ġcapital":2352,"com":2353,"ration":2354,"itive":2355,"ĠDes":2356,"Ġexper":2357,"Ġmarket":2358,"ĠMill":2359,"otes":2360,"Ġnewsp":2361,"Ġproduction":2362,"ĠSil":2363,"ella":2364,"Ġtransl":2365,"islative":2366,"onto":2367,"Ġpolitical":2368,"ĠMelbourne":2369,"Ġintroduced":2370,"mond":2371,"ention":2372,"Ġdirect":2373,"bur":2374,"ita":2375,"ĠCath":2376,"Ġlyric":2377,"Ġkm":2378,"Ġproduct":2379,"Äĩ":2380,"arian":2381,"Ġsent":2382,"Ġsecondary":2383,"ua":2384,"Ġeng":2385,"itte":2386,"Ġhand":2387,"Ġweek":2388,"ao":2389,"ĠSum":2390,"lect":2391,"aves":2392,"mon":2393,"arter":2394,"ĠHal":2395,"rain":2396,"Ġ1974":2397,"ournal":2398,"ano":2399,"Ġlow":2400,"rap":2401,"ropolit":2402,"Ġfield":2403,"ivil":2404,"Ġhimself":2405,"most":2406,"Ġaward":2407,"Ġvide":2408,"Ġchampionship":2409,"Ġbecome":2410,"cher":2411,"ny":2412,"ĠAsh":2413,"Ġ1992":2414,"iberal":2415,"ĠToronto":2416,"ĠTenn":2417,"ĠChe":2418,"ĠBob":2419,"Ġreached":2420,"Ġ1945":2421,"ĠBridge":2422,"rich":2423,"atic":2424,"Ġcrit":2425,"ĠGr":2426,"iven":2427,"Ġever":2428,"ersh":2429,"Ġkey":2430,"Ġaddition":2431,"Ġmen":2432,"abel":2433,"enced":2434,"ergy":2435,"ih":2436,"ĠMem":2437,"Ġmill":2438,"ĠAlbert":2439,"Ġplays":2440,"Ġinst":2441,"emeter":2442,"ĠJohnson":2443,"ling":2444,"val":2445,"ateg":2446,"ĠSanta":2447,"view":2448,"Ġhelp":2449,"ky":2450,"reed":2451,"Ġpower":2452,"ĠRos":2453,"ĠWin":2454,"imb":2455,"Ġgo":2456,"Ġroute":2457,"ffic":2458,"Ġfamous":2459,"och":2460,"ĠNo":2461,"ĠInter":2462,"ĠBarb":2463,"ĠColumbia":2464,"Ġpat":2465,"Ġowned":2466,"erland":2467,"Ġpract":2468,"ĠHart":2469,"Ġcomb":2470,"ĠDev":2471,"Ġproduc":2472,"ange":2473,"Ġ1984":2474,"ociety":2475,"ĠSwedish":2476,"Ġsl":2477,"Ġbass":2478,"ĠTV":2479,"ĠCas":2480,"ĠIf":2481,"ĠFC":2482,"ges":2483,"well":2484,"Ġ&":2485,"Ġcal":2486,"ropolitan":2487,"ires":2488,"olution":2489,"ece":2490,"Ġarri":2491,"Ġ1990":2492,"ĠRecords":2493,"Ġfree":2494,"merc":2495,"ini":2496,"Ġ1963":2497,"ĠClub":2498,"Ġdid":2499,"ĠNort":2500,"Ġspok":2501,"Ġarrived":2502,"mar":2503,"ĠTay":2504,"ĠBrad":2505,"Ġtop":2506,"etwork":2507,"urther":2508,"ĠArea":2509,"ĠNick":2510,"road":2511,"linois":2512,"ĠIllinois":2513,"pe":2514,"ti":2515,"Ġfif":2516,"Ġmodel":2517,"Ġlife":2518,"ument":2519,"Ġspent":2520,"Ġ179":2521,"ĠSuper":2522,"ĠOld":2523,"Ġimp":2524,"Ġillust":2525,"ĠOb":2526,"stein":2527,"FL":2528,"aka":2529,"ught":2530,"Ġbrought":2531,"Ġz":2532,"ĠArt":2533,"Ġtraditional":2534,"Ġexample":2535,"la":2536,"ĠAward":2537,"ĠRaj":2538,"Ġlives":2539,"Ġstruct":2540,"ĠOne":2541,"Ġ1980":2542,"ĠClark":2543,"ĠRepublican":2544,"riz":2545,"Ġvol":2546,"ape":2547,"Ġrace":2548,"emetery":2549,"19":2550,"AA":2551,"Ġmoth":2552,"rial":2553,"Ġ177":2554,"ĠBeach":2555,"Ġyounger":2556,"lymp":2557,"Ġtro":2558,"edy":2559,"stra":2560,"ĠOlymp":2561,"Ġconstit":2562,"Ġperiod":2563,"Ġoperated":2564,"ware":2565,"Ġpark":2566,"ĠLi":2567,"Ġconsidered":2568,"essee":2569,"ĠTennessee":2570,"ĠDemocrat":2571,"ivid":2572,"Ġcontrol":2573,"ĠAcadem":2574,"ĠRoute":2575,"iro":2576,"iÄĩ":2577,"Ġcould":2578,"Ġmethod":2579,"Ġsoutheast":2580,"oo":2581,"Ġfind":2582,"Ġmechan":2583,"Ġfactor":2584,"burgh":2585,"ĠDen":2586,"ĠMusic":2587,"ĠâĢĻ":2588,"Ġcodice":2589,"Ġprivate":2590,"ĠSov":2591,"Ġpres":2592,"ĠIm":2593,"ĠFirst":2594,"istic":2595,"Ġge":2596,"Ġprovinc":2597,"Ġexpress":2598,"Ġvarious":2599,"Ġsupported":2600,"olved":2601,"ĠStud":2602,"abor":2603,"Ġtelevision":2604,"yr":2605,"Ä±":2606,"adel":2607,"ĠKar":2608,"ĠKore":2609,"Ġreport":2610,"Ġ1991":2611,"Ġ1979":2612,"awa":2613,"Ġ178":2614,"ĠAustria":2615,"Ġlyrics":2616,"cia":2617,"Ġset":2618,"ream":2619,"ĠGod":2620,"Ġteac":2621,"Ġturn":2622,"ĠKent":2623,"Ġdeb":2624,"Ġ1962":2625,"Ġconsists":2626,"ĠFrancisco":2627,"ittee":2628,"me":2629,"Ġprop":2630,"earch":2631,"Ġremained":2632,"ja":2633,"ÅŁ":2634,"Ġfem":2635,"Ġfew":2636,"ordered":2637,"Ġacquired":2638,"ĠMike":2639,"Ġclose":2640,"Ġclaim":2641,"Ġimm":2642,"Ġblue":2643,"Ġter":2644,"ĠSur":2645,"Ġgiven":2646,"iano":2647,"estival":2648,"Ġbecause":2649,"ockey":2650,"ĠGreat":2651,"Ġgroups":2652,"Ġadded":2653,"Ġincre":2654,"Ġsuccessful":2655,"ĠCub":2656,"Ġhost":2657,"Ġcommerc":2658,"Ġtex":2659,"ĠPrad":2660,"Ġ1996":2661,"Ġav":2662,"ĠRes":2663,"ĠDar":2664,"ĠDal":2665,"embly":2666,"Ã¢":2667,"Ġide":2668,"int":2669,"Ġaut":2670,"ĠColl":2671,"ĠEr":2672,"Ġ1989":2673,"porary":2674,"ĠPortug":2675,"lected":2676,"Ġdown":2677,"Ġlight":2678,"used":2679,"ordin":2680,"Ġserves":2681,"ography":2682,"uter":2683,"Ġsee":2684,"phia":2685,"ĠSwitz":2686,"airman":2687,"Ġsummer":2688,"adelphia":2689,"ĠSwitzerland":2690,"ioc":2691,"ĠMic":2692,"ĠLaw":2693,"oted":2694,"ĠSri":2695,"ĠSab":2696,"ĠCount":2697,"ilies":2698,"ĠWat":2699,"ousin":2700,"Ġ1982":2701,"Ġindivid":2702,"ĠBrazilian":2703,"ership":2704,"ĠMat":2705,"Ġdata":2706,"ĠPan":2707,"Ġeconom":2708,"ged":2709,"ko":2710,"Ġreal":2711,"istical":2712,"ĠMu":2713,"ĠNik":2714,"ĠStat":2715,"Ġprocess":2716,"opp":2717,"Ġright":2718,"Ġbuilding":2719,"western":2720,"ĠPac":2721,"ĠKong":2722,"Ġ1986":2723,"ĠOs":2724,"ĠPrince":2725,"Ġpresented":2726,"ĠIrish":2727,"Ġtourn":2728,"ĠTurkey":2729,"Ġinform":2730,"aged":2731,"akes":2732,"Ġ1987":2733,"ĠBir":2734,"Ġdrum":2735,"ĠDire":2736,"Ġfamilies":2737,"Ġconsist":2738,"Ġindust":2739,"Ġrelation":2740,"ĠPhiladelphia":2741,"ators":2742,"ĠBank":2743,"ĠLong":2744,"ĠJust":2745,"Ġwhom":2746,"Ġchem":2747,"ĠHall":2748,"Ġlike":2749,"Ġpartic":2750,"Ġmovement":2751,"Ġlanguages":2752,"Ġstandard":2753,"wan":2754,"worth":2755,"Ġconv":2756,"Ġsection":2757,"ected":2758,"Ġincludes":2759,"Ġabove":2760,"Ġsongs":2761,"ĠBasketball":2762,"Ġhistorical":2763,"Ġfifth":2764,"ĠBow":2765,"Ġgood":2766,"aff":2767,"hest":2768,"Ġcoll":2769,"ĠBern":2770,"ĠPen":2771,"Ġnatural":2772,"Ġgu":2773,"ĠAli":2774,"Ġmountain":2775,"Ġfict":2776,"ĠRay":2777,"Ġonce":2778,"ĠJeff":2779,"ili":2780,"ĠGh":2781,"utes":2782,"Ġleague":2783,"ĠPolish":2784,"Ġpainter":2785,"ecutive":2786,"anded":2787,"Ġparty":2788,"Ġdistricts":2789,"ologist":2790,"Ġcountry":2791,"BS":2792,"pur":2793,"atre":2794,"ĠSqu":2795,"ĠServ":2796,"urt":2797,"iving":2798,"emporary":2799,"aine":2800,"Ġanal":2801,"udd":2802,"ĠIslands":2803,"Ġconstru":2804,"ĠTaylor":2805,"andra":2806,"ales":2807,"ĠMag":2808,"Ġ1969":2809,"ronic":2810,"Ġindependent":2811,"Ġsym":2812,"Ġmater":2813,"Ġtechn":2814,"Ġ1994":2815,"borough":2816,"change":2817,"Ġindividual":2818,"eration":2819,"Ġins":2820,"Ġwid":2821,"ĠJon":2822,"Ġeven":2823,"rative":2824,"Ġfre":2825,"Ġdays":2826,"Ġcomplex":2827,"Ġenergy":2828,"ĠFrancis":2829,"ĠSk":2830,"ĠTo":2831,"Ġmult":2832,"ux":2833,"ĠHow":2834,"ador":2835,"Ġ1983":2836,"ĠAvenue":2837,"ĠSoviet":2838,"fect":2839,"Ġtre":2840,"ĠBure":2841,"Ġread":2842,"ĠGrand":2843,"anton":2844,"Ġchurch":2845,"Ġlimited":2846,"Ġnewspaper":2847,"Ġinstead":2848,"Ġsite":2849,"Ġ1971":2850,"aught":2851,"Ġsuburb":2852,"ĠJoe":2853,"Ġtemper":2854,"ĠBou":2855,"ĠBol":2856,"ĠRoss":2857,"ĠDor":2858,"ava":2859,"ories":2860,"ask":2861,"ĠPrim":2862,"ĠOther":2863,"Ġanc":2864,"Ġspecific":2865,"ĠConnect":2866,"ĠScottish":2867,"ĠPacific":2868,"ĠMos":2869,"Ġmag":2870,"omer":2871,"Ġfeat":2872,"Ġrenamed":2873,"ĠCard":2874,"Ġ1981":2875,"Ġ1988":2876,"Ġ1975":2877,"Ġrelationship":2878,"cast":2879,"ĠCa":2880,"Ġ1966":2881,"Ġelements":2882,"Ġmusical":2883,"hab":2884,"esc":2885,"ĠNic":2886,"ĠKansas":2887,"Ġship":2888,"athan":2889,"Ġservice":2890,"Ġgrandson":2891,"Ġcomposer":2892,"ospital":2893,"ĠCatholic":2894,"anz":2895,"Ġfurther":2896,"Ġdra":2897,"ots":2898,"ova":2899,"Ġplaying":2900,"Ġlargest":2901,"Ġless":2902,"iana":2903,"Ġregular":2904,"ĠForce":2905,"ĠChristian":2906,"aving":2907,"aker":2908,"Ġclosed":2909,"Ġartist":2910,"hood":2911,"ness":2912,"uency":2913,"Ġcop":2914,"ĠPun":2915,"Ġnever":2916,"ĠWall":2917,"ĠKen":2918,"Ġselected":2919,"ize":2920,"Ġ1997":2921,"ĠPhilip":2922,"ĠGovernment":2923,"erb":2924,"ĠMarc":2925,"Ġmainly":2926,"Ġtrained":2927,"ĠMountain":2928,"Ġteacher":2929,"ither":2930,"ĠLy":2931,"utch":2932,"ĠAnother":2933,"Ġ1967":2934,"Ġrecogn":2935,"Ġothers":2936,"Ġpolitician":2937,"Ġvideo":2938,"aut":2939,"ule":2940,"leg":2941,"acing":2942,"Ġking":2943,"ĠMetropolitan":2944,"12":2945,"Ġscient":2946,"Ġofficially":2947,"Ġvisited":2948,"ĠPradesh":2949,"de":2950,"ĠMost":2951,"ĠMaria":2952,"Ġcommercial":2953,"pson":2954,"ĠRod":2955,"igious":2956,"ude":2957,"Ġbroad":2958,"Ġ1920":2959,"uke":2960,"Ġairport":2961,"Ġtype":2962,"Ġguitarist":2963,"ĠFreder":2964,"da":2965,"Ġ$":2966,"Ġcivil":2967,"ĠSome":2968,"ĠHel":2969,"istan":2970,"eball":2971,"Ġadv":2972,"ways":2973,"Ġposition":2974,"za":2975,"head":2976,"atter":2977,"icut":2978,"Ġdoc":2979,"ĠHun":2980,"irit":2981,"Ġjust":2982,"Ġtraded":2983,"ĠCape":2984,"Ġtaken":2985,"ĠConnecticut":2986,"wa":2987,"andid":2988,"ĠCorn":2989,"ĠBig":2990,"ĠEs":2991,"aval":2992,"Ġrock":2993,"Ġbooks":2994,"han":2995,"ĠHou":2996,"Ġ1940":2997,"ĠRegion":2998,"Ġneigh":2999,"rizona":3000,"ming":3001,"ply":3002,"Ġopt":3003,"atives":3004,"omen":3005,"ĠJones":3006,"Ġnight":3007,"Ġ1951":3008,"nes":3009,"Ġident":3010,"ĠSand":3011,"ĠManche":3012,"str":3013,"ĠHong":3014,"ĠDie":3015,"right":3016,"ĠGil":3017,"lyn":3018,"ears":3019,"Ġjournal":3020,"Ġcontemporary":3021,"ĠCommun":3022,"cester":3023,"ĠPatrick":3024,"Ġdestroy":3025,"ĠManchester":3026,"Ġcousin":3027,"ĠDou":3028,"ĠGo":3029,"Ġfilms":3030,"gy":3031,"Ġinte":3032,"ĠArizona":3033,"ĠBilly":3034,"ĠLord":3035,"odes":3036,"Ġbeh":3037,"ĠSpring":3038,"oyd":3039,"ĠSerb":3040,"ĠÅ":3041,"ĠOx":3042,"Ġnorthwest":3043,"ĠCons":3044,"FA":3045,"wen":3046,"Äį":3047,"ĠTra":3048,"ests":3049,"Ġquant":3050,"Ġyoung":3051,"Ġcontinued":3052,"ĠLar":3053,"ĠLie":3054,"rip":3055,"Ġstudy":3056,"ĠRussia":3057,"ĠNorthern":3058,"ground":3059,"alk":3060,"ĠBre":3061,"ĠRog":3062,"ĠJer":3063,"imate":3064,"Ġgirl":3065,"ĠVen":3066,"aver":3067,"Ġ1932":3068,"Ġleader":3069,"nic":3070,"Ġcase":3071,"ĠSun":3072,"Ġmix":3073,"ĠParliament":3074,"ĠLor":3075,"ĠFilm":3076,"Ġproper":3077,"aki":3078,"ĠSteve":3079,"Ġconstituency":3080,"hib":3081,"edd":3082,"Ġfig":3083,"ĠMajor":3084,"ĠBul":3085,"Ġdig":3086,"ĠNavy":3087,"uten":3088,"ucc":3089,"Ġseen":3090,"Ġcreate":3091,"Ġhuman":3092,"cul":3093,"year":3094,"onn":3095,"ĠBenn":3096,"ĠHaw":3097,"olf":3098,"ĠNich":3099,"resents":3100,"Ġrepresents":3101,"play":3102,"ĠBarbara":3103,"Ġsyn":3104,"Ġbank":3105,"iron":3106,"Ġstage":3107,"sych":3108,"ĠLittle":3109,"ĠJess":3110,"ĠGord":3111,"ĠAsia":3112,"ippi":3113,"ĠPoland":3114,"ĠExpress":3115,"Ġamong":3116,"Ġfinished":3117,"Ġdestroyed":3118,"rey":3119,"Ġcandid":3120,"ĠTer":3121,"ĠMoh":3122,"Ġdam":3123,"Ġhy":3124,"thur":3125,"ĠUK":3126,"atherine":3127,"Ġinvest":3128,"Ġpoet":3129,"tra":3130,"Ġsen":3131,"ĠCat":3132,"ĠArab":3133,"ĠIran":3134,"ĠLew":3135,"ĠGian":3136,"ids":3137,"Ġ1964":3138,"ĠOlympic":3139,"ĠAcademy":3140,"ĠLim":3141,"Ġbeg":3142,"ĠBaron":3143,"Ġconnected":3144,"Ġmerged":3145,"ĠHay":3146,"ĠLl":3147,"Ġusually":3148,"Ġmoving":3149,"ĠWalter":3150,"Ġtournament":3151,"iy":3152,"sen":3153,"Ġtimes":3154,"ĠHor":3155,"aps":3156,"Ġ32":3157,"Ġlevel":3158,"ĠArthur":3159,"Ġtwice":3160,"ĠBureau":3161,"orial":3162,"ĠAk":3163,"Ġdel":3164,"ĠPo":3165,"ĠKe":3166,"Ġproble":3167,"lands":3168,"ampton":3169,"Ġ1960":3170,"ĠPeru":3171,"Ġreported":3172,"bo":3173,"Ġpot":3174,"Ġdefined":3175,"Ġknow":3176,"Ġsixth":3177,"ĠJacob":3178,"Ġfemale":3179,"band":3180,"ycl":3181,"erved":3182,"arth":3183,"ĠMr":3184,"ĠIv":3185,"aint":3186,"ĠIts":3187,"Ġrul":3188,"ĠGovernor":3189,"forman":3190,"40":3191,"Ġdem":3192,"omm":3193,"Ġliter":3194,"ĠVi":3195,"Ġruns":3196,"Ġhighest":3197,"ĠStatistical":3198,"less":3199,"rack":3200,"ĠLind":3201,"ĠGames":3202,"ĠFort":3203,"ĠFair":3204,"ĠEric":3205,"Ġdepartment":3206,"ĠTa":3207,"Ġpred":3208,"ĠBand":3209,"urs":3210,"ĠStock":3211,"Ġ1957":3212,"Ġflows":3213,"ĠCommittee":3214,"Ġdiscovered":3215,"Ġstrong":3216,"alth":3217,"atory":3218,"ilton":3219,"oke":3220,"Ġplayers":3221,"Ġsecret":3222,"ormal":3223,"ĠConst":3224,"Ġphot":3225,"Ġchanged":3226,"Ġspoken":3227,"Ġmaterial":3228,"ĠDiego":3229,"..":3230,"awn":3231,"Ġcir":3232,"cean":3233,"Ġbeat":3234,"ection":3235,"Ġresult":3236,"Ġpreviously":3237,"ĠRh":3238,"anted":3239,"Ġunivers":3240,"Ġlearn":3241,"ernand":3242,"Ġ1930":3243,"ĠCongressional":3244,"ĠHouston":3245,"Ġenc":3246,"arters":3247,"Ġcle":3248,"ĠSince":3249,"Ġfollows":3250,"Ġgovernor":3251,"Ġtroops":3252,"bec":3253,"dest":3254,"icated":3255,"ĠCensus":3256,"Ġuniversity":3257,"Ġspe":3258,"ĠAmb":3259,"inning":3260,"ĠHighway":3261,"ĠVictoria":3262,"Ġgraduated":3263,"ĠGordon":3264,"gen":3265,"uz":3266,"Ġformerly":3267,"Ġdistributed":3268,"bol":3269,"ares":3270,"Ġsu":3271,"Ġbody":3272,"ican":3273,"ĠPri":3274,"ĠEver":3275,"elli":3276,"ference":3277,"ĠArgentina":3278,"ĠOntar":3279,"ĠGreg":3280,"ĠOntario":3281,"Ġsem":3282,"ĠCemetery":3283,"Ġpress":3284,"ĠBrid":3285,"ĠHa":3286,"ĠKenn":3287,"Ġ1978":3288,"Ġcoach":3289,"iocese":3290,"ĠTen":3291,"ĠTwo":3292,"ĠMir":3293,"Ġstates":3294,"ĠArmy":3295,"lim":3296,"ror":3297,"reen":3298,"Ġmass":3299,"ĠPoint":3300,"Ġlib":3301,"ĠDay":3302,"ĠWind":3303,"Ġeight":3304,"Ġaltern":3305,"ugby":3306,"Ġ1995":3307,"ĠIndones":3308,"Ġsons":3309,"Ġelement":3310,"Ġlisted":3311,"ĠArmen":3312,"ĠMississ":3313,"ĠUtah":3314,"ting":3315,"Ġoffer":3316,"ĠMax":3317,"Ġmuch":3318,"Ġiss":3319,"ĠHung":3320,"Ġneg":3321,"Ġnetwork":3322,"owa":3323,"ĠStew":3324,"resp":3325,"Ġrural":3326,"Ġexcept":3327,"ĠZh":3328,"Ġcontains":3329,"Ġsoft":3330,"ĠJackson":3331,"Ġradio":3332,"iat":3333,"wick":3334,"ĠDutch":3335,"ĠFer":3336,"ĠFinn":3337,"usband":3338,"Ġarmy":3339,"ahoma":3340,"Ġphil":3341,"ĠQueens":3342,"ĠCam":3343,"ĠCont":3344,"rov":3345,"ĠHard":3346,"ements":3347,"ocal":3348,"Ġ33":3349,"anga":3350,"Ġperforman":3351,"oir":3352,"ĠPak":3353,"ĠJason":3354,"ĠGood":3355,"unk":3356,"ĠVerm":3357,"ĠIndiana":3358,"Ġcontinu":3359,"Ġeldest":3360,"Ġeducation":3361,"utenant":3362,"Ġtake":3363,"Ġcorresp":3364,"Ġeffects":3365,"Ġcorrespond":3366,"kes":3367,"ye":3368,"Ġbranch":3369,"ĠBor":3370,"ĠHav":3371,"oms":3372,"ĠGreek":3373,"ĠKel":3374,"ardo":3375,"mann":3376,"Ġ1998":3377,"ĠAllen":3378,"Ġgenerally":3379,"ĠSecond":3380,"Ġdebut":3381,"Ġimmig":3382,"ĠSlov":3383,"aign":3384,"anj":3385,"Ġmale":3386,"ĠLater":3387,"ĠNa":3388,"ĠField":3389,"aya":3390,"Ġ1947":3391,"Ġ1950":3392,"Ġ1938":3393,"Ġprem":3394,"ĠMaryland":3395,"ĠLatin":3396,"Ġvict":3397,"Ġassoci":3398,"lahoma":3399,"mad":3400,"ĠTy":3401,"ĠBab":3402,"Ġhusband":3403,"oln":3404,"eck":3405,"Ġanim":3406,"ĠAlf":3407,"ĠEll":3408,"Ġ1917":3409,"ĠQuebec":3410,"Ġfinanc":3411,"ĠOklahoma":3412,"inent":3413,"ination":3414,"Ġsil":3415,"Ġbought":3416,"ume":3417,"aining":3418,"Ġcondu":3419,"Ġaccording":3420,"ĠBoard":3421,"bab":3422,"town":3423,"Ġfull":3424,"ĠMumb":3425,"Ġdou":3426,"stown":3427,"ado":3428,"ĠNat":3429,"ĠFar":3430,"emp":3431,"iger":3432,"ublin":3433,"tens":3434,"Ġ1955":3435,"Ġfinals":3436,"Ġmeas":3437,"jected":3438,"Ġcompetition":3439,"Ġproducer":3440,"Ġinteg":3441,"ĠStewart":3442,"gl":3443,"more":3444,"mark":3445,"oor":3446,"sil":3447,"ĠMit":3448,"acy":3449,"Ġwhose":3450,"evin":3451,"ounded":3452,"yth":3453,"Ġbishop":3454,"Ġcorn":3455,"ĠTod":3456,"omp":3457,"Ġnin":3458,"avia":3459,"Ġ1993":3460,"Ġ1985":3461,"Ġfootballer":3462,"Ġcolon":3463,"Ġremains":3464,"Ġmanaged":3465,"Ġcandidate":3466,"oe":3467,"ĠBC":3468,"Ġservices":3469,"mit":3470,"xim":3471,"onia":3472,"Ġinstit":3473,"ĠBBC":3474,"Ġlaun":3475,"ourt":3476,"Ġ1973":3477,"ĠMcG":3478,"Ġcapt":3479,"ĠNorway":3480,"ĠFinland":3481,"Ġengine":3482,"Ġawarded":3483,"Ġstructure":3484,"ĠMunicip":3485,"ĠCommission":3486,"Ġparticipated":3487,"cel":3488,"ette":3489,"ĠOper":3490,"umar":3491,"Ġcond":3492,"onic":3493,"eded":3494,"Ġalmost":3495,"Ġany":3496,"Ã¡n":3497,"Ġcountries":3498,"lam":3499,"asia":3500,"real":3501,"ĠCass":3502,"Ġparliament":3503,"ĠJenn":3504,"ĠGard":3505,"Ġgave":3506,"ects":3507,"uka":3508,"Ġinterest":3509,"Ġmatch":3510,"Ġcampaign":3511,"ĠWilson":3512,"Ġlimpet":3513,"Ġmeeting":3514,"ĠDirector":3515,"rary":3516,"ĠCra":3517,"Ġnative":3518,"ĠOh":3519,"Ġstar":3520,"ĠAnt":3521,"ession":3522,"Ġarran":3523,"anna":3524,"ĠJane":3525,"Ġopening":3526,"medi":3527,"ĠGraham":3528,"writ":3529,"alam":3530,"ĠSy":3531,"oul":3532,"ĠBry":3533,"ĠHum":3534,"ĠVer":3535,"Ġlet":3536,"ĠMadh":3537,"ĠRid":3538,"tha":3539,"ĠVan":3540,"ĠAnne":3541,"ĠAssembly":3542,"Ġgreen":3543,"Ġheadqu":3544,"ĠLegislative":3545,"uf":3546,"Ġsqu":3547,"ali":3548,"Ġcou":3549,"Ġhon":3550,"ĠLove":3551,"ĠDer":3552,"ira":3553,"allas":3554,"Ġunit":3555,"Ġ1977":3556,"ĠColon":3557,"azz":3558,"ĠCarolina":3559,"Ġadministrative":3560,"Ġproposed":3561,"ĠCop":3562,"Ġmention":3563,"ented":3564,"ĠPre":3565,"ubb":3566,"hens":3567,"Ġoffice":3568,"bell":3569,"Ġemb":3570,"Ġwide":3571,"Ġcer":3572,"ĠSus":3573,"ila":3574,"ĠLinc":3575,"Ġeither":3576,"opal":3577,"apt":3578,"ricket":3579,"Ġcompan":3580,"Ġ1942":3581,"Ġprovided":3582,"azi":3583,"ĠJuan":3584,"ĠParish":3585,"ĠWhile":3586,"ĠAntonio":3587,"ĠDepartment":3588,"ĠLincoln":3589,"aily":3590,"Å¡":3591,"ĠLine":3592,"ĠWild":3593,"ĠForest":3594,"Ġsour":3595,"Ġfranch":3596,"Ġcert":3597,"Ġmem":3598,"iment":3599,"apur":3600,"Ġadop":3601,"Ġtransferred":3602,"Ġdocument":3603,"Ġi":3604,"Ġtaught":3605,"Ġfr":3606,"ĠTam":3607,"Ġhous":3608,"umer":3609,"Ġshot":3610,"annel":3611,"Ġsoon":3612,"Ġsurf":3613,"rÃ©":3614,"Ġfederal":3615,"ĠSol":3616,"adron":3617,"ĠNC":3618,"urd":3619,"irth":3620,"ĠOreg":3621,"rael":3622,"apers":3623,"Ġseg":3624,"Ġapplic":3625,"Ġsuper":3626,"hemat":3627,"Ġinformation":3628,"Ġtemperature":3629,"ĠOregon":3630,"of":3631,"Ġtest":3632,"ĠLand":3633,"ĠDublin":3634,"ĠOcean":3635,"sequ":3636,"Ġtracks":3637,"Ġbroadcast":3638,"bishop":3639,"ils":3640,"ĠMiddle":3641,"idence":3642,"Ġprobab":3643,"Ġqual":3644,"ĠAfrican":3645,"Ġparticular":3646,"ĠOxford":3647,"har":3648,"oon":3649,"uction":3650,"ĠSociety":3651,"Ġlower":3652,"ĠInstit":3653,"ĠProdu":3654,"Ġreligious":3655,"Ġseven":3656,"othy":3657,"urban":3658,"bra":3659,"lan":3660,"oa":3661,"Ġaver":3662,"ĠFre":3663,"ĠFox":3664,"ĠWay":3665,"utions":3666,"agen":3667,"ulpt":3668,"ello":3669,"ĠYoun":3670,"Ġspirit":3671,"Ġbrown":3672,"ĠIsrael":3673,"Ġ1953":3674,"Ġ1928":3675,"inner":3676,"Ġappears":3677,"Ġcommunities":3678,"ĠBerlin":3679,"agnetic":3680,"Ġpersonal":3681,"ĠAtlanta":3682,"ĠFrederick":3683,"ĠNichol":3684,"ĠMississippi":3685,"ĠBrian":3686,"ĠFestival":3687,"ĠVol":3688,"ends":3689,"Ġbrothers":3690,"ÃŃn":3691,"Ġtypes":3692,"ĠOhio":3693,"anian":3694,"Ġ...":3695,"ĠSev":3696,"Ġlines":3697,"Ġgrow":3698,"Ġseat":3699,"Ġ1948":3700,"ĠMalay":3701,"ĠGeorgia":3702,"Ġinstrum":3703,"ĠLloyd":3704,"ĠMumbai":3705,"Ġway":3706,"ĠPrem":3707,"ĠTheatre":3708,"uty":3709,"ĠKir":3710,"ĠKevin":3711,"Ġallow":3712,"ĠSea":3713,"Ġobs":3714,"dam":3715,"lad":3716,"men":3717,"rations":3718,"tained":3719,"oni":3720,"ĠMap":3721,"ĠBj":3722,"olid":3723,"ĠLank":3724,"ĠEastern":3725,"Ġvotes":3726,"oper":3727,"Ġdeg":3728,"Ġshould":3729,"Ġmanusc":3730,"Ġofficer":3731,"enez":3732,"Ġdyn":3733,"ĠRev":3734,"ĠKarl":3735,"Ġstory":3736,"Ġmuseum":3737,"Ġorigin":3738,"ucky":3739,"Ġoccup":3740,"ĠÂ":3741,"onent":3742,"Ġ100":3743,"ĠRon":3744,"una":3745,"ĠWater":3746,"Ġ1915":3747,"ĠBritain":3748,"Ġinterview":3749,"ĠRussell":3750,"ĠSamuel":3751,"ĠDelhi":3752,"Ġview":3753,"Ġmillion":3754,"hsil":3755,"Ġinj":3756,"ĠGro":3757,"ipe":3758,"orders":3759,"Ġassigned":3760,"boro":3761,"Ġmentioned":3762,"mir":3763,"ication":3764,"Ġcold":3765,"ĠDi":3766,"ĠDu":3767,"ĠGi":3768,"Ġforces":3769,"illa":3770,"rice":3771,"Ġ165":3772,"Ġtravel":3773,"Ġhistoric":3774,"Ġconstant":3775,"Ġculture":3776,"dy":3777,"Ã¨":3778,"ora":3779,"ites":3780,"Ġcovered":3781,"Ġpian":3782,"Ġunique":3783,"ĠJohann":3784,"Ġcenter":3785,"Ġretired":3786,"ĠRailroad":3787,"don":3788,"inear":3789,"orter":3790,"Ġox":3791,"rep":3792,"ĠAct":3793,"ouver":3794,"Ġnar":3795,"rant":3796,"ograp":3797,"ennis":3798,"ength":3799,"Ġlimpets":3800,"Ġpotential":3801,"house":3802,"ĠDallas":3803,"ĠNag":3804,"Ġforce":3805,"Ġmarri":3806,"Ġyellow":3807,"ploy":3808,"20":3809,"gs":3810,"alle":3811,"alia":3812,"Ġcast":3813,"ĠCross":3814,"ĠMort":3815,"ĠMany":3816,"imer":3817,"Ġartic":3818,"Ġsimple":3819,"Ġfranchise":3820,"Ġaverage":3821,"war":3822,"ĠFollow":3823,"Ġforms":3824,"Ġprominent":3825,"Ġelectric":3826,"ban":3827,"uer":3828,"Ġbase":3829,"Ġfund":3830,"ĠAC":3831,"Ġmiddle":3832,"ĠWy":3833,"ĠVeg":3834,"ika":3835,"ailed":3836,"Ġ1958":3837,"wards":3838,"ĠCarter":3839,"Ġflow":3840,"ĠCenter":3841,"Ġmonths":3842,"ĠLewis":3843,"ĠVermont":3844,"heastern":3845,"Ġbre":3846,"Ġlabel":3847,"Ġelections":3848,"Ġcentre":3849,"Ġ1934":3850,"Ġgenus":3851,"Ġsubject":3852,"ĠCoast":3853,"Ġmunicipal":3854,"Ġinfluence":3855,"Ġpractice":3856,"cy":3857,"ĠTok":3858,"Ġdom":3859,"olis":3860,"ĠDam":3861,"uru":3862,"ĠFel":3863,"istry":3864,"ĠKath":3865,"iance":3866,"Ġalways":3867,"ĠVanc":3868,"ĠUk":3869,"Ġ1961":3870,"ĠProfess":3871,"Ġ1924":3872,"Ġdaughters":3873,"Ġclassical":3874,"ĠVancouver":3875,"can":3876,"asa":3877,"anned":3878,"ĠAndre":3879,"ĠMountains":3880,"Ã¶r":3881,"ĠSarah":3882,"ĠRadio":3883,"gian":3884,"lers":3885,"wich":3886,"Ġbar":3887,"ĠBa":3888,"ĠBell":3889,"amin":3890,"ĠNFL":3891,"istant":3892,"ump":3893,"Ġspons":3894,"Ġleast":3895,"ffield":3896,"ĠSheffield":3897,"eleb":3898,"monton":3899,"Ġterrit":3900,"Ġtheory":3901,"Ġhard":3902,"omes":3903,"iable":3904,"obal":3905,"Ġscene":3906,"ĠBlue":3907,"lines":3908,"Ġdivided":3909,"ĠOliver":3910,"Ġbeliev":3911,"ĠCampbell":3912,"Ġdirectly":3913,"ĠJustice":3914,"time":3915,"Ġceleb":3916,"ĠTri":3917,"ĠMod":3918,"lement":3919,"ĠDick":3920,"ĠNap":3921,"ĠAnna":3922,"Ġexhib":3923,"rade":3924,"Ġcommission":3925,"Ġsculpt":3926,"ĠCla":3927,"Ġended":3928,"Ġdiscuss":3929,"Ġdivision":3930,"Ġbasic":3931,"Ġrefers":3932,"ĠEvans":3933,"Ã³n":3934,"Ġphysical":3935,"Ã§":3936,"ĠBang":3937,"ĠBattle":3938,"Ġdry":3939,"iga":3940,"akh":3941,"ĠMargar":3942,"Ġusing":3943,"Ġclos":3944,"Ġresearch":3945,"plement":3946,"Ġapproxim":3947,"ĠArchbishop":3948,"ĠCroat":3949,"Ġevery":3950,"ĠFollowing":3951,"uese":3952,"Ġtable":3953,"ĠSouthern":3954,"ĠMy":3955,"ela":3956,"ĠRal":3957,"riff":3958,"ĠJam":3959,"Ġrejected":3960,"ĠNar":3961,"Ġnames":3962,"inally":3963,"Ġabs":3964,"Ġcommand":3965,"istered":3966,"Ġdefeating":3967,"ĠDef":3968,"Ġsystems":3969,"ĠAdams":3970,"ĠStudios":3971,"ĠPortuguese":3972,"Ġlaunched":3973,"Ġmot":3974,"ĠBet":3975,"Ġtoday":3976,"Ġded":3977,"Ġhold":3978,"ĠHot":3979,"ults":3980,"elled":3981,"Ġ40":3982,"Ġ50":3983,"Ġraised":3984,"Ġheadquarters":3985,"Ġpianist":3986,"yal":3987,"Ġbridge":3988,"ĠAh":3989,"ĠBishop":3990,"olm":3991,"urst":3992,"ĠFernand":3993,"ĠWisc":3994,"igrated":3995,"ĠKat":3996,"Ġyou":3997,"Ġ1921":3998,"Ġ1919":3999,"onsin":4000,"Ġthroughout":4001,"veland":4002,"ĠTommy":4003,"ĠBelgium":4004,"ĠCleveland":4005,"ĠColonel":4006,"ĠWisconsin":4007,"Ġeth":4008,"Ġurban":4009,"Ġcaus":4010,"Ġnormal":4011,"Ġlarger":4012,"Ġbuildings":4013,"ties":4014,"zy":4015,"ĠBoth":4016,"Ġdue":4017,"ĠDeb":4018,"ĠFederal":4019,"ĠEston":4020,"Ġ1912":4021,"ĠBroad":4022,"ĠMalays":4023,"ĠMuslim":4024,"Ġcampus":4025,"Ġcritic":4026,"ĠKentucky":4027,"Ġcorner":4028,"eur":4029,"ĠJay":4030,"Ġreferred":4031,"ĠGill":4032,"uts":4033,"ĠVale":4034,"Ġplaced":4035,"Ġleaders":4036,"ĠMuseum":4037,"Ġcirc":4038,"Ġmarriage":4039,"ui":4040,"Ġwat":4041,"ĠCourt":4042,"ĠBri":4043,"Ġdark":4044,"Ġlake":4045,"Ġliberal":4046,"ĠJr":4047,"ĠNad":4048,"apore":4049,"ĠYou":4050,"assador":4051,"insula":4052,"ĠEdmonton":4053,"Ġstudent":4054,"ĠGlen":4055,"Ġtwent":4056,"ĠJimmy":4057,"ĠSingapore":4058,"ĠHoward":4059,"Ġdigital":4060,"ĠConstant":4061,"Ġpsych":4062,"ĠDo":4063,"ĠStar":4064,"ques":4065,"Ġfled":4066,"ĠTeam":4067,"ĠHerbert":4068,"Ġseparate":4069,"VD":4070,"oz":4071,"par":4072,"vest":4073,"Ġtri":4074,"inburgh":4075,"Ġcycl":4076,"ĠSi":4077,"ĠSara":4078,"ĠHug":4079,"ĠLes":4080,"Ġlog":4081,"ĠEarl":4082,"agu":4083,"ender":4084,"ĠUnder":4085,"ĠEnter":4086,"oints":4087,"icks":4088,"ĠEdinburgh":4089,"Ġ1954":4090,"Ġobject":4091,"ĠBrooklyn":4092,"Ġassociated":4093,"Ġwomen":4094,"Ġsch":4095,"ĠAnth":4096,"Ġtransport":4097,"Ġminister":4098,"Ġpromoted":4099,"aug":4100,"bro":4101,"Ġsk":4102,"ĠCast":4103,"ĠBoy":4104,"ĠRome":4105,"stad":4106,"ĠLas":4107,"ift":4108,"ephew":4109,"Ġshown":4110,"Ġshows":4111,"ruz":4112,"anning":4113,"Ġ90":4114,"chestra":4115,"Ġleads":4116,"Ġ1885":4117,"ĠSimon":4118,"ĠMontreal":4119,"ĠPeters":4120,"ĠService":4121,"rus":4122,"rings":4123,"Ġcat":4124,"ĠSC":4125,"roe":4126,"ĠPier":4127,"Ġasked":4128,"Ġexist":4129,"Ġmetal":4130,"Ġcerem":4131,"aries":4132,"ĠMun":4133,"ĠMinn":4134,"Ġhot":4135,"ĠPres":4136,"Ġnephew":4137,"irt":4138,"ĠEst":4139,"ĠOf":4140,"ĠGreece":4141,"ĠButler":4142,"ĠRoger":4143,"ĠDown":4144,"elling":4145,"ending":4146,"peror":4147,"Ġboard":4148,"Ġartists":4149,"ĠMexican":4150,"Ġbelong":4151,"Ġcourse":4152,"Ġincreased":4153,"oac":4154,"vin":4155,"Ġwanted":4156,"alo":4157,"Ġbordered":4158,"ĠCur":4159,"Ġpoints":4160,"Ġnomin":4161,"cep":4162,"abama":4163,"ighter":4164,"ĠAlabama":4165,"Ġlocation":4166,"cliff":4167,"ailable":4168,"Ġ1943":4169,"ĠWarren":4170,"Ġbelow":4171,"ĠPhilippine":4172,"Ġindustrial":4173,"Ġdouble":4174,"Ġpoint":4175,"ĠWing":4176,"Ġwithd":4177,"Ġweak":4178,"Ġviol":4179,"ĠAtlantic":4180,"Ġadopted":4181,"gress":4182,"va":4183,"Ġfac":4184,"ĠSat":4185,"ĠCastle":4186,"ĠAst":4187,"Ġdriv":4188,"ĠPed":4189,"olar":4190,"ĠNev":4191,"ĠOp":4192,"ĠOak":4193,"udge":4194,"rane":4195,"rants":4196,"Ġplan":4197,"assy":4198,"Ġtownship":4199,"Ġsucce":4200,"Ġmajority":4201,"gypt":4202,"Ġproperties":4203,"Ġfight":4204,"ĠChen":4205,"ĠCatherine":4206,"ĠMid":4207,"ĠLiberal":4208,"iant":4209,"Ġseventh":4210,"Ġexpanded":4211,"ĠStef":4212,"ĠCuba":4213,"35":4214,"gate":4215,"mat":4216,"nam":4217,"onst":4218,"ĠSaint":4219,"ĠTre":4220,"ĠTren":4221,"ĠAud":4222,"ĠBrig":4223,"ĠBucc":4224,"ĠThen":4225,"Ġnumer":4226,"Ġeigh":4227,"Ġroyal":4228,"Ġcollege":4229,"Ġ1888":4230,"active":4231,"ĠHills":4232,"Ġdoes":4233,"ĠHamilton":4234,"Ġavailable":4235,"ĠCollins":4236,"habited":4237,"Ġquantum":4238,"iers":4239,"jan":4240,"ken":4241,"Ġten":4242,"esp":4243,"Ġdomin":4244,"Ġdeep":4245,"Ġeditor":4246,"Ġsmaller":4247,"Ġillustrated":4248,"ĠIndonesia":4249,"Ġsurface":4250,"hai":4251,"tim":4252,"Ġbirth":4253,"ĠSn":4254,"ĠSher":4255,"ĠTony":4256,"ĠCamb":4257,"ĠBru":4258,"ĠRen":4259,"ĠJord":4260,"imum":4261,"ĠChand":4262,"Ġspace":4263,"Ġoutside":4264,"ĠHolly":4265,"ĠBaltim":4266,"Ġjournalist":4267,"ĠBaltimore":4268,"born":4269,"Ġcases":4270,"ĠSon":4271,"ĠBus":4272,"otte":4273,"ĠArk":4274,"Ġbetter":4275,"Ġvillages":4276,"ervative":4277,"rayed":4278,"Ġsuccessor":4279,"ĠTurkish":4280,"Ġchanges":4281,"Ġprovincial":4282,"ĠLieutenant":4283,"ez":4284,"iu":4285,"ni":4286,"Ġbrew":4287,"ĠTel":4288,"lem":4289,"ĠDet":4290,"ĠNash":4291,"ĠWang":4292,"ĠEgypt":4293,"Ġant":4294,"clus":4295,"enna":4296,"Ġ1946":4297,"rama":4298,"ĠBrun":4299,"ĠKorean":4300,"Ġneighbor":4301,"Ġhyper":4302,"Ġvictory":4303,"Ġwind":4304,"Ġmur":4305,"Ġdr":4306,"adi":4307,"ector":4308,"Ġexchange":4309,"Ġdirection":4310,"Ġemploy":4311,"ĠRobin":4312,"Ġapproximately":4313,"Ġmurder":4314,"bie":4315,"craft":4316,"gor":4317,"enh":4318,"ĠSA":4319,"ĠTai":4320,"Ġpri":4321,"ĠPope":4322,"ĠHockey":4323,"Ġreason":4324,"akers":4325,"Ġmusician":4326,"Ġconfir":4327,"Ġpossible":4328,"Ġcaptured":4329,"ĠMadhya":4330,"Ġtraveled":4331,"bre":4332,"sid":4333,"ero":4334,"Ġinsp":4335,"Ġmission":4336,"ĠIowa":4337,"Ġonline":4338,"ĠKal":4339,"Ġcomes":4340,"Ġagreed":4341,"Ġimmedi":4342,"Ġmedia":4343,"Ġcollabor":4344,"ĠPakistan":4345,"mb":4346,"rup":4347,"Ã¥":4348,"ĠCanton":4349,"ĠPost":4350,"ĠHu":4351,"ĠHere":4352,"Ġforced":4353,"ĠViet":4354,"apolis":4355,"Ġ1956":4356,"Ġcharacters":4357,"Ġinfluenced":4358,"ĠMemorial":4359,"Ġpresence":4360,"Ġmixed":4361,"ĠFinnish":4362,"ĠMalayalam":4363,"allel":4364,"ĠInf":4365,"Ġalthough":4366,"Ġsouthwest":4367,"ĠPlay":4368,"onomous":4369,"Ġlawyer":4370,"Ġsurvived":4371,"ĠSlovak":4372,"ĠLanka":4373,"Ġdedicated":4374,"80":4375,"kn":4376,"wall":4377,"Ġcensus":4378,"ĠTw":4379,"ĠCyp":4380,"ĠAar":4381,"ingu":4382,"ĠDVD":4383,"Ġrequ":4384,"ĠFound":4385,"ĠWhere":4386,"ĠKas":4387,"ĠChile":4388,"Ġchange":4389,"Ġ36":4390,"Ġkind":4391,"ĠUnivers":4392,"rence":4393,"Ġresident":4394,"azine":4395,"Ġ1927":4396,"ĠAmster":4397,"Ġ1904":4398,"onym":4399,"Ġcultural":4400,"Ġchampionships":4401,"ĠLawrence":4402,"ĠQueensland":4403,"ĠAmsterdam":4404,"read":4405,"oming":4406,"anny":4407,"Ġ80":4408,"ĠAnders":4409,"ĠRepresent":4410,"Ġsolo":4411,"ĠLarry":4412,"Ġspiritual":4413,"mont":4414,"rete":4415,"ĠBed":4416,"ager":4417,"ips":4418,"Ġ175":4419,"Ġ176":4420,"ĠConn":4421,"Ġfinally":4422,"Ġprofessor":4423,"ĠPerth":4424,"ĠSingh":4425,"ĠMatthew":4426,"ĠKelly":4427,"ened":4428,"Ġhow":4429,"antic":4430,"Ġpolice":4431,"Ġtreat":4432,"Ġscientific":4433,"Ġsoftware":4434,"uv":4435,"ĠSound":4436,"ĠTrans":4437,"ĠCow":4438,"ouri":4439,"Ġlength":4440,"ĠFe":4441,"ĠElect":4442,"eva":4443,"Ġ54":4444,"Ġoverall":4445,"Ġevents":4446,"ĠBraves":4447,"ĠCaptain":4448,"ĠPhilippines":4449,"ĠBulgar":4450,"Ġpremier":4451,"Ġcompanies":4452,"ĠBjÃ¶r":4453,"onz":4454,"ĠAut":4455,"ĠBos":4456,"Ġvon":4457,"Ġuncle":4458,"sex":4459,"ĠWhit":4460,"Ġaccomp":4461,"Ġelder":4462,"ĠSecret":4463,"ĠDemocratic":4464,"ĠMoham":4465,"folk":4466,"inus":4467,"Ġweb":4468,"Ġfought":4469,"ĠCBS":4470,"Ġder":4471,"stan":4472,"ĠHan":4473,"ĠMarsh":4474,"ĠShah":4475,"Ġ1935":4476,"Ġ1936":4477,"Ġ1937":4478,"ĠAnderson":4479,"ĠHarv":4480,"ĠDanish":4481,"ification":4482,"Ġ1903":4483,"ĠNorfolk":4484,"Ġproblems":4485,"Ġcommissioned":4486,"ĠBuccin":4487,"Ġpremiered":4488,"track":4489,"Ġaud":4490,"Ġcells":4491,"Ġdaily":4492,"Ġhospital":4493,"ĠPublic":4494,"aches":4495,"ĠColomb":4496,"ĠCharlie":4497,"Ġentire":4498,"Ġdistribution":4499,"Ġbassist":4500,"ĠClarke":4501,"Ġdrums":4502,"ĠInstitute":4503,"rac":4504,"zh":4505,"Ã¸":4506,"ĠMas":4507,"Ġhor":4508,"ĠNob":4509,"ĠWes":4510,"Ġearl":4511,"ĠKr":4512,"agh":4513,"Ġseats":4514,"wegian":4515,"Ġ1922":4516,"Ġmeans":4517,"Ġ1891":4518,"ĠNorwegian":4519,"ĠSomers":4520,"Ġfrequ":4521,"ĠPrime":4522,"Ġengineer":4523,"ĠMunicipality":4524,"ĠFernando":4525,"Ġsucceeded":4526,"tle":4527,"Ġinher":4528,"ĠDob":4529,"Ġacross":4530,"ĠHolland":4531,"Ġfriends":4532,"ographic":4533,"Ġextrem":4534,"Ġoppos":4535,"ĠNikol":4536,"EO":4537,"back":4538,"uj":4539,"vent":4540,"Ġmaster":4541,"ĠPa":4542,"oli":4543,"ĠLive":4544,"ecess":4545,"Ġget":4546,"ĠVenez":4547,"ĠHeb":4548,"Ġchairman":4549,"Ġrare":4550,"ternal":4551,"Ġ1972":4552,"Ġflu":4553,"Ġparish":4554,"umberland":4555,"Ġaircraft":4556,"Ġmathemat":4557,"Ġrespect":4558,"cestershire":4559,"ĠValea":4560,"ĠVenezuel":4561,"ising":4562,"atively":4563,"Ġcover":4564,"Ġlay":4565,"Ġgra":4566,"Ġextens":4567,"pper":4568,"erve":4569,"Ġparallel":4570,"Ġadditional":4571,"Ġtexts":4572,"ĠPeninsula":4573,"Ġalternative":4574,"iece":4575,"Ã±":4576,"isional":4577,"ito":4578,"itiz":4579,"ĠBi":4580,"ĠHans":4581,"overs":4582,"Ġwhat":4583,"ĠMarie":4584,"ĠShawn":4585,"ĠMcM":4586,"Ġjoint":4587,"Ġrank":4588,"verse":4589,"ĠDuncan":4590,"ĠSenate":4591,"ĠArgentine":4592,"Ġchemical":4593,"Ġconstruction":4594,"Ġcontinuous":4595,"ĠYoung":4596,"pos":4597,"ĠIndepend":4598,"Ġupper":4599,"ĠAndy":4600,"Ġquarter":4601,"Ġentered":4602,"Ġphilos":4603,"wer":4604,"anding":4605,"enes":4606,"Ġpil":4607,"iling":4608,"Ġmole":4609,"ĠBah":4610,"ĠRub":4611,"ĠLith":4612,"ĠLab":4613,"ĠDew":4614,"ĠNBA":4615,"Ġnine":4616,"ĠOwen":4617,"ĠStr":4618,"opher":4619,"ĠChairman":4620,"Ġserving":4621,"ĠTrin":4622,"ĠMahar":4623,"Ġprinc":4624,"Ġninth":4625,"ĠMaple":4626,"Ġbreak":4627,"ĠRalph":4628,"cliffe":4629,"lied":4630,"inted":4631,"ready":4632,"ĠTour":4633,"Ġdanc":4634,"ĠTheir":4635,"chiev":4636,"ĠAthens":4637,"ĠSeries":4638,"Ġmayor":4639,"Ġinitially":4640,"18":4641,"cott":4642,"fit":4643,"ga":4644,"iidae":4645,"mers":4646,"ski":4647,"Ġtells":4648,"Ġwoman":4649,"ener":4650,"esota":4651,"ĠPop":4652,"stone":4653,"ĠNight":4654,"ĠNiger":4655,"use":4656,"ulate":4657,"Ġalready":4658,"ĠVill":4659,"Ġ2018":4660,"antry":4661,"ourg":4662,"Ġ1965":4663,"Ġrecently":4664,"ashtra":4665,"ĠBarn":4666,"ĠCentre":4667,"Ġrange":4668,"Ġlegislative":4669,"Ġseparated":4670,"Ġfeatures":4671,"ĠDerby":4672,"ĠMinnesota":4673,"ĠFoundation":4674,"ias":4675,"Ġtree":4676,"rown":4677,"Ġtold":4678,"ĠRa":4679,"ĠLib":4680,"Ġthose":4681,"Ġarg":4682,"Ġmeets":4683,"Ġsurround":4684,"Ġportrayed":4685,"Ġprovinces":4686,"Ġmagazine":4687,"ĠMargaret":4688,"92":4689,"CA":4690,"HL":4691,"bi":4692,"dah":4693,"Ġtal":4694,"ense":4695,"ĠMand":4696,"Ġdet":4697,"ĠLam":4698,"Ġlook":4699,"etz":4700,"ĠGary":4701,"ĠGonz":4702,"ĠWa":4703,"ĠEug":4704,"avel":4705,"Ġ35":4706,"Ġ37":4707,"Ġ60":4708,"Ġuses":4709,"ĠJohnny":4710,"Ġrecomm":4711,"Ġ1944":4712,"Ġ1910":4713,"Ġcoordin":4714,"Ġgener":4715,"Ġrecording":4716,"Ġreturning":4717,"Ġ1901":4718,"Ġoperates":4719,"Ġmedal":4720,"ĠQueen":4721,"Ġislands":4722,"Ġoffered":4723,"known":4724,"eh":4725,"Ġ+":4726,"ĠSid":4727,"ĠBad":4728,"ĠWel":4729,"iag":4730,"Ġsequ":4731,"ĠJunction":4732,"iction":4733,"Ġmaintained":4734,"ĠSilver":4735,"36":4736,"pite":4737,"Ġaction":4738,"ĠSund":4739,"Ġpast":4740,"ĠBris":4741,"Ġdu":4742,"ami":4743,"ĠRyan":4744,"ĠPas":4745,"ĠPress":4746,"ĠLower":4747,"ĠLady":4748,"Ġlinear":4749,"adium":4750,"ĠNed":4751,"ĠGall":4752,"thlet":4753,"ĠFil":4754,"ĠWeb":4755,"Ġstars":4756,"ĠThree":4757,"pped":4758,"ĠPhill":4759,"Ġ1918":4760,"Ġ1906":4761,"ĠEmma":4762,"Ġentrep":4763,"Ġ1858":4764,"ĠGlas":4765,"Ġshortly":4766,"Ġinitial":4767,"Ġillustrations":4768,"Ġexpressed":4769,"ĠBridg":4770,"ĠJordan":4771,"Ġentrepren":4772,"bel":4773,"cont":4774,"ees":4775,"ning":4776,"pris":4777,"wide":4778,"ĠBon":4779,"ĠFalls":4780,"ocated":4781,"ĠAlso":4782,"Ġsilver":4783,"TC":4784,"mouth":4785,"vis":4786,"yt":4787,"Ġ!":4788,"Ġrom":4789,"anth":4790,"aling":4791,"Ġfoc":4792,"ĠCricket":4793,"Ġdiss":4794,"ĠRand":4795,"Ġlove":4796,"ĠJose":4797,"osl":4798,"asty":4799,"ĠYang":4800,"Ġcomputer":4801,"ĠSports":4802,"Ġcontract":4803,"ĠBlu":4804,"Ġmanuf":4805,"ĠNorman":4806,"Ġsettlers":4807,"Ġ1870":4808,"ĠJosh":4809,"Ġextended":4810,"ĠMissouri":4811,"Ġwinter":4812,"Ġbusinessman":4813,"ĠKorea":4814,"Ġancest":4815,"ĠCardinal":4816,"ĠVenice":4817,"ĠEntertain":4818,"ĠMaharashtra":4819,"Ġmanufact":4820,"Ġdev":4821,"Ġconcept":4822,"ĠArn":4823,"ĠSwiss":4824,"airs":4825,"Ġinvolved":4826,"ĠAnthony":4827,"ĠStefan":4828,"NA":4829,"cent":4830,"cop":4831,"iny":4832,"Ġcities":4833,"Ġcastle":4834,"ĠSin":4835,"rix":4836,"ĠEc":4837,"igen":4838,"iang":4839,"anghai":4840,"perial":4841,"roph":4842,"ĠShanghai":4843,"ensive":4844,"Ġ174":4845,"iamond":4846,"Ġreplace":4847,"ĠGuy":4848,"ĠThompson":4849,"Ġ1864":4850,"Ġinvas":4851,"Ġtranslated":4852,"Ġidea":4853,"Ġfiction":4854,"Ġparliamentary":4855,"Ġsegment":4856,"ĠProfessor":4857,"Ġwaters":4858,"Ġwood":4859,"Ġmouth":4860,"Ġstay":4861,"ĠStan":4862,"ĠUp":4863,"Ġhere":4864,"ĠHead":4865,"vert":4866,"ĠCharlotte":4867,"ĠMaur":4868,"Ġrecognized":4869,"iri":4870,"Ġesp":4871,"Ġtrib":4872,"alem":4873,"reb":4874,"Ġmine":4875,"ĠNether":4876,"eman":4877,"imal":4878,"ĠKarn":4879,"ropical":4880,"Ġ164":4881,"Ġmodels":4882,"levard":4883,"Ġhigher":4884,"Ġsymbol":4885,"ĠJerus":4886,"Ġlibrary":4887,"ĠEntertainment":4888,"bs":4889,"oid":4890,"Ġbattle":4891,"ĠHy":4892,"Ġchief":4893,"izes":4894,"ĠProt":4895,"Ġannual":4896,"Ġlandsc":4897,"Ġeventually":4898,"Ġprinted":4899,"Ġlowest":4900,"Ġconsisted":4901,"Ġimmediately":4902,"jamin":4903,"met":4904,"Ġast":4905,"isa":4906,"Ġwing":4907,"Ġfle":4908,"Ġcool":4909,"Ġcitiz":4910,"ĠSym":4911,"ĠAy":4912,"Ġdate":4913,"Ġdeter":4914,"amo":4915,"ĠRom":4916,"ĠHamb":4917,"ĠDah":4918,"ĠNY":4919,"ĠWor":4920,"ounter":4921,"ĠVa":4922,"range":4923,"aking":4924,"ĠAlan":4925,"ĠLeban":4926,"Ġnews":4927,"Ġregions":4928,"Ġstudies":4929,"Ġ1923":4930,"Ġ1926":4931,"ĠHarris":4932,"Ġtradition":4933,"Ġmoney":4934,"ĠEmperor":4935,"Ġ1850":4936,"rett":4937,"ĠSeattle":4938,"Ġapproved":4939,"ĠBenjamin":4940,"sk":4941,"itch":4942,"Ġwithout":4943,"osen":4944,"ricult":4945,"Ġplat":4946,"Ġracing":4947,"teen":4948,"Ġscript":4949,"Ġrival":4950,"ĠAdd":4951,"Ġrelated":4952,"Ġcomplete":4953,"Ġelectronic":4954,"Ġdegree":4955,"Ġconfirmed":4956,"be":4957,"fort":4958,"father":4959,"rast":4960,"zi":4961,"Ġordered":4962,"inet":4963,"eds":4964,"Ġwords":4965,"rell":4966,"Ġfall":4967,"Ġcateg":4968,"ĠCel":4969,"ĠCork":4970,"ĠCEO":4971,"ĠMidd":4972,"ĠPra":4973,"ĠHend":4974,"ĠLanc":4975,"ĠLife":4976,"ems":4977,"estic":4978,"Ġcomic":4979,"Ġplant":4980,"teenth":4981,"unda":4982,"Ġscreen":4983,"ĠBrother":4984,"ĠPrinc":4985,"ĠHalif":4986,"Ġmechanical":4987,"Ġtext":4988,"ĠWatson":4989,"Ġbehind":4990,"Ġcertain":4991,"ĠBuccinidae":4992,"Ġentrepreneur":4993,"burn":4994,"Ġsociety":4995,"ĠSad":4996,"Ġhall":4997,"ĠHist":4998,"ĠLyn":4999,"umed":5000,"ĠChap":5001,"Ġperfect":5002,"Ġrelease":5003,"Ġowner":5004,"Ġamb":5005,"Ġbaseball":5006,"ĠMedia":5007,"ĠTimothy":5008,"Ġtraining":5009,"LA":5010,"ien":5011,"Ġwarm":5012,"aria":5013,"Ġsens":5014,"Ġcrim":5015,"ĠTos":5016,"ĠBase":5017,"osm":5018,"Ġcome":5019,"Ġleaving":5020,"Ġshared":5021,"ĠSche":5022,"ancy":5023,"Ġ1933":5024,"ĠMcK":5025,"ledge":5026,"ĠGlou":5027,"Ġ1871":5028,"Ġ1814":5029,"Ġbackground":5030,"Ġweekly":5031,"Ġfigure":5032,"Ġsemi":5033,"Ġhonor":5034,"ĠBruce":5035,"vels":5036,"ĠTurn":5037,"aza":5038,"Ġallows":5039,"Ġsubsid":5040,"Ġdeputy":5041,"Ġpainted":5042,"ĠCaroline":5043,"bolic":5044,"cow":5045,"nia":5046,"aton":5047,"ĠCab":5048,"elia":5049,"stream":5050,"ĠDur":5051,"agan":5052,"ĠOg":5053,"Ġstep":5054,"ify":5055,"abad":5056,"ensed":5057,"Ġacadem":5058,"Ġlonger":5059,"ĠMorgan":5060,"ĠFranklin":5061,"ĠGhana":5062,"ĠMoscow":5063,"olidated":5064,"ĠMalaysia":5065,"Äģ":5066,"Ġaff":5067,"isher":5068,"Ġwounded":5069,"Ġmer":5070,"Ġdiocese":5071,"Ġjun":5072,"ocks":5073,"ĠExecutive":5074,"Ġrestored":5075,"ription":5076,"Ġglobal":5077,"iest":5078,"sa":5079,"yo":5080,"Ġess":5081,"Ġachiev":5082,"ĠSut":5083,"ĠTak":5084,"Ġpers":5085,"ĠHorn":5086,"ĠLang":5087,"ĠGa":5088,"ido":5089,"acity":5090,"Ġgold":5091,"oviÄĩ":5092,"ipl":5093,"Ġfounder":5094,"Ġ1949":5095,"Ġ1916":5096,"anks":5097,"othing":5098,"Ġ1907":5099,"Ġdepart":5100,"Ġequival":5101,"Ġradical":5102,"Ġvalue":5103,"Ġfactors":5104,"ĠSquadron":5105,"Ġknowledge":5106,"ĠVienna":5107,"ĠLithu":5108,"ĠJerusalem":5109,"Ġtried":5110,"isp":5111,"omial":5112,"uture":5113,"ĠOffic":5114,"Ġchall":5115,"Ġcontribut":5116,"Ġformal":5117,"Ġscience":5118,"Ġmostly":5119,"Ġorganized":5120,"writer":5121,"Ġnarrow":5122,"cepted":5123,"aur":5124,"die":5125,"orado":5126,"Ġcut":5127,"ĠSean":5128,"ĠTog":5129,"rot":5130,"ĠBart":5131,"ĠBurn":5132,"Ġdat":5133,"ĠPBA":5134,"ĠLud":5135,"ĠNazi":5136,"ĠGriff":5137,"ĠKad":5138,"ĠOil":5139,"astic":5140,"gebra":5141,"Ġrate":5142,"Ġcancer":5143,"ĠIslam":5144,"ĠEdu":5145,"Ġoffers":5146,"Ġeval":5147,"Ġrepresentative":5148,"ieval":5149,"Ġorganization":5150,"ĠSenator":5151,"ĠOtt":5152,"ĠAlberta":5153,"ĠErn":5154,"Ġgirls":5155,"Ġperformance":5156,"ĠNCAA":5157,"ĠEstonia":5158,"Ġdeterm":5159,"10":5160,"Ġwhel":5161,"Ġmach":5162,"ĠLok":5163,"ĠEag":5164,"Ġthough":5165,"Ġstable":5166,"Ġplants":5167,"Ġpartner":5168,"Ġceremony":5169,"ĠArkansas":5170,"like":5171,"ĠCruz":5172,"ĠAM":5173,"ĠAuck":5174,"ĠRugby":5175,"ĠDave":5176,"ĠGab":5177,"ĠWright":5178,"ima":5179,"Ġstories":5180,"Ġrule":5181,"Ġ64":5182,"ĠLeon":5183,"Ġtehsil":5184,"Ġ70":5185,"Ġresigned":5186,"ĠColorado":5187,"Ġ1929":5188,"Ġsubsequ":5189,"ĠDavis":5190,"Ġtherefore":5191,"Ġremaining":5192,"ĠTechn":5193,"Ġmedical":5194,"ĠManor":5195,"ĠBhopal":5196,"Ġcarried":5197,"Ġoccas":5198,"ĠNicol":5199,"Ġimmigrants":5200,"ĠRidge":5201,"Ġcouple":5202,"ĠAuckland":5203,"bul":5204,"anu":5205,"inental":5206,"iser":5207,"arily":5208,"Ġmust":5209,"ĠDod":5210,"ĠFed":5211,"ĠFle":5212,"ĠFul":5213,"Ġstri":5214,"Ġvo":5215,"irement":5216,"aching":5217,"Ġelev":5218,"ĠAsian":5219,"Ġworking":5220,"Ġprovides":5221,"ĠBarry":5222,"Ġnearest":5223,"ĠAmong":5224,"ĠHarry":5225,"Ġdecided":5226,"ĠCarlos":5227,"TA":5228,"jab":5229,"oen":5230,"rill":5231,"set":5232,"arp":5233,"Ġsailed":5234,"ĠSub":5235,"Ġpaper":5236,"ĠMain":5237,"ĠMack":5238,"Ġmy":5239,"ĠBrist":5240,"ĠBomb":5241,"ĠPA":5242,"ĠPear":5243,"Ġloss":5244,"ĠNathan":5245,"ĠWell":5246,"Ġvan":5247,"abet":5248,"Ġrat":5249,"erald":5250,"Ġagre":5251,"phabet":5252,"Ġ1931":5253,"ĠAirlines":5254,"Ġ1880":5255,"Ġ1883":5256,"Ġmedieval":5257,"ĠManuel":5258,"Ġtoured":5259,"Ġclaims":5260,"Ġancient":5261,"ĠPunjab":5262,"ĠDougl":5263,"Ġobserved":5264,"ĠDerbyshire":5265,"ĠNetherlands":5266,"ĠDouglas":5267,"Ġet":5268,"iced":5269,"ĠAuthor":5270,"ione":5271,"ĠBerg":5272,"Ġdance":5273,"Ġlittle":5274,"istance":5275,"agon":5276,"Ġheart":5277,"ante":5278,"Ġdeal":5279,"Ġleaves":5280,"Ġsupply":5281,"Ġattacked":5282,"Ġsoundtrack":5283,"Ġdrummer":5284,"Ġliterature":5285,"Ġethnic":5286,"Ġbind":5287,"Ġfav":5288,"ĠCze":5289,"Ġmax":5290,"ĠIra":5291,"ĠRap":5292,"ĠRick":5293,"Ġlic":5294,"ĠJes":5295,"ĠNA":5296,"ĠNeg":5297,"ĠWinn":5298,"imens":5299,"Ġvirt":5300,"Ġsports":5301,"hend":5302,"Ġseasons":5303,"Ġmovie":5304,"encia":5305,"Ġsingers":5306,"umbers":5307,"Ġ1860":5308,"Ġpainting":5309,"ĠBerk":5310,"ĠBerasia":5311,"opping":5312,"Ġfictional":5313,"Ġruled":5314,"ĠWindows":5315,"ĠHungary":5316,"Ġdocumentary":5317,"ĠNicholas":5318,"ĠSomerset":5319,"Ġinherited":5320,"Ġdatab":5321,"ĠCzech":5322,"rass":5323,"wing":5324,"inary":5325,"Ġsug":5326,"Ġchap":5327,"Ġexc":5328,"Ġmarked":5329,"Ġresults":5330,"Ġoperations":5331,"Ġvisual":5332,"ĠSerbian":5333,"Ġparticularly":5334,"16":5335,"39":5336,"eated":5337,"gers":5338,"icia":5339,"roc":5340,"ĠBog":5341,"ĠRio":5342,"ĠDa":5343,"ĠDrew":5344,"ades":5345,"ĠNott":5346,"ayan":5347,"oved":5348,"ĠSprings":5349,"anne":5350,"Ġimplement":5351,"chell":5352,"ĠParker":5353,"engers":5354,"Ġserve":5355,"Ġdecision":5356,"ĠRegional":5357,"ĠMeh":5358,"Ġ1818":5359,"ĠGeorgian":5360,"Ġcourt":5361,"ĠKennedy":5362,"ĠArmenia":5363,"ĠProductions":5364,"Ġastron":5365,"bu":5366,"ss":5367,"inated":5368,"Ġcode":5369,"ĠBall":5370,"ĠPower":5371,"Ġlos":5372,"ads":5373,"ĠGul":5374,"ishing":5375,"ĠThail":5376,"ĠSpec":5377,"Ġregistered":5378,"Ġeconomic":5379,"ĠBaronet":5380,"ĠJohannes":5381,"Ġwhelks":5382,"ĠThailand":5383,"iation":5384,"jun":5385,"king":5386,"mae":5387,"orph":5388,"Ġsang":5389,"ato":5390,"ataka":5391,"ĠTit":5392,"ĠChel":5393,"roit":5394,"ĠAires":5395,"Ġpan":5396,"eld":5397,"ĠTheod":5398,"ĠDak":5399,"ĠDennis":5400,"ĠJag":5401,"ĠNow":5402,"ĠGran":5403,"ĠGib":5404,"ĠEoac":5405,"utt":5406,"ĠKu":5407,"Ġunin":5408,"ĠUntil":5409,"Ġroutes":5410,"ĠZem":5411,"ances":5412,"Ġdefeat":5413,"umbent":5414,"Ġleading":5415,"ĠWarner":5416,"Ġ1866":5417,"Ġtrade":5418,"ĠLux":5419,"Ġprotect":5420,"Ġbiography":5421,"Ġtakes":5422,"Ġmultip":5423,"Ġhouses":5424,"ĠUkrain":5425,"ĠDetroit":5426,"ĠCyprus":5427,"ĠOfficer":5428,"ĠEoacmae":5429,"mes":5430,"Ġbig":5431,"ĠTem":5432,"Ġhom":5433,"ĠLt":5434,"ĠUg":5435,"Ġhighly":5436,"cker":5437,"ĠPatri":5438,"mitted":5439,"holm":5440,"ji":5441,"wise":5442,"eri":5443,"ores":5444,"enz":5445,"Ġsaw":5446,"Ġbot":5447,"ĠCost":5448,"ĠMol":5449,"ĠMik":5450,"ĠMans":5451,"ouch":5452,"ĠBeng":5453,"ĠPil":5454,"ĠDh":5455,"une":5456,"iab":5457,"ĠInn":5458,"ĠKer":5459,"ĠOpen":5460,"berto":5461,"ĠVinc":5462,"ĠChamp":5463,"iform":5464,"udi":5465,"eller":5466,"Ġcompared":5467,"ĠCooper":5468,"Ġversions":5469,"Ġsettlement":5470,"Ġfeature":5471,"ĠPeople":5472,"Ġgrandfather":5473,"Ġeffective":5474,"ĠIII":5475,"ĠMiller":5476,"ĠPortugal":5477,"ĠBoulevard":5478,"Ġfigures":5479,"onnie":5480,"ĠHawai":5481,"ĠAlfred":5482,"ographer":5483,"Ġneighborhood":5484,"con":5485,"Ġiron":5486,"alar":5487,"icate":5488,"ĠApp":5489,"ilities":5490,"Ġhour":5491,"ĠHospital":5492,"ĠDanny":5493,"Ġfort":5494,"Ġgran":5495,"Ġunion":5496,"Ġkil":5497,"Ġformally":5498,"Ġperman":5499,"Ġnorthwestern":5500,"Ġmean":5501,"Ġexpl":5502,"Ġinjured":5503,"Ġphilosoph":5504,"17":5505,"gart":5506,"Ġesc":5507,"Ġmake":5508,"ĠHind":5509,"omys":5510,"ĠLott":5511,"ĠNote":5512,"owell":5513,"ĠKan":5514,"ecially":5515,"aga":5516,"Ġvert":5517,"ĠViv":5518,"ieu":5519,"Ġ34":5520,"azar":5521,"Ġedge":5522,"ysis":5523,"Ġtrains":5524,"ervoir":5525,"ificant":5526,"ĠChristopher":5527,"ĠAbd":5528,"Ġvisit":5529,"ĠDonald":5530,"Ġconnects":5531,"Ġvalley":5532,"ĠLatv":5533,"Ġkingdom":5534,"Ġdebuted":5535,"ĠVegas":5536,"ĠTaiwan":5537,"Ġtreatment":5538,"ĠHebrew":5539,"Ġop":5540,"Ġself":5541,"ĠSystem":5542,"ĠTest":5543,"ĠTop":5544,"ĠRat":5545,"ĠVI":5546,"ĠUpper":5547,"Ġexclus":5548,"Ġapplied":5549,"ĠAmericans":5550,"Ġperform":5551,"Ġ1959":5552,"Ġdescent":5553,"Ġpoor":5554,"Ġactors":5555,"ĠLucas":5556,"ĠSecondary":5557,"ID":5558,"viron":5559,"Ġice":5560,"Ġap":5561,"oria":5562,"Ġword":5563,"rez":5564,"ĠSong":5565,"ĠTang":5566,"ĠMÃ¼":5567,"Ġdial":5568,"ĠIdah":5569,"Ġhill":5570,"ĠPit":5571,"ĠPad":5572,"ĠPomer":5573,"ĠHold":5574,"ĠDis":5575,"ĠDomin":5576,"ĠJi":5577,"ĠOd":5578,"Ġstop":5579,"ĠVel":5580,"Ġang":5581,"Ġ300":5582,"Ġarrest":5583,"seud":5584,"Ġjazz":5585,"ĠFrances":5586,"Ġ1941":5587,"ultan":5588,"etty":5589,"nez":5590,"ridae":5591,"ĠAmaz":5592,"Ġ1881":5593,"Ġ1892":5594,"Ġpolitics":5595,"Ġamount":5596,"ĠBelgian":5597,"Ġpossib":5598,"Ġproducts":5599,"ĠBernard":5600,"ĠStockholm":5601,"stanbul":5602,"Ġespecially":5603,"ĠAuthority":5604,"ĠIdaho":5605,"lay":5606,"Ġwhe":5607,"ĠRound":5608,"Ġrefer":5609,"acc":5610,"Ġstreet":5611,"ĠChannel":5612,"ĠThird":5613,"ĠBlake":5614,"Ġcolor":5615,"Ġaccess":5616,"Ġinfluences":5617,"Ġconcert":5618,"Ġclaimed":5619,"low":5620,"iner":5621,"oned":5622,"Ġsom":5623,"Ġhockey":5624,"standing":5625,"ĠLev":5626,"ĠLuck":5627,"ĠFour":5628,"ĠWorth":5629,"ĠEP":5630,"avier":5631,"Ġspect":5632,"oker":5633,"ĠSpenc":5634,"Ġnewly":5635,"Ġboy":5636,"Ġ1939":5637,"Ġ1909":5638,"ĠSantos":5639,"ĠPeak":5640,"ĠArmstr":5641,"ĠBuen":5642,"Ġcombination":5643,"ĠBowl":5644,"ĠSquare":5645,"Ġdrawn":5646,"Ġbeginning":5647,"ĠOpera":5648,"Ġarranged":5649,"Ġdomestic":5650,"Ġsponsored":5651,"Ġuninhabited":5652,"ĠSpencer":5653,"ĠArmstrong":5654,"ho":5655,"Ġwine":5656,"Ġcouncil":5657,"ĠCy":5658,"Ġprison":5659,"ĠBack":5660,"ĠIan":5661,"ĠOver":5662,"ĠUr":5663,"ĠAustin":5664,"ĠAustrian":5665,"ĠElli":5666,"Ġassistant":5667,"Ġcaptain":5668,"ĠCamer":5669,"Ġsuggest":5670,"gow":5671,"xt":5672,"Ġtenth":5673,"inist":5674,"Ġbird":5675,"Ġfolk":5676,"ĠSyn":5677,"ĠCed":5678,"ĠMen":5679,"ĠBrent":5680,"enton":5681,"ĠPon":5682,"river":5683,"ĠNep":5684,"ĠFish":5685,"chi":5686,"ĠKim":5687,"Ġdead":5688,"Ġexecutive":5689,"Ġpartn":5690,"Ġclimate":5691,"aji":5692,"ictures":5693,"Ġcomplet":5694,"ĠWars":5695,"ĠAbu":5696,"Ġdecl":5697,"Ġneu":5698,"Ġfunctions":5699,"ĠMilton":5700,"ĠMercer":5701,"Ġindependence":5702,"Ġsuff":5703,"Ġfinancial":5704,"Ġmeasure":5705,"ĠTokyo":5706,"Ġterritory":5707,"ĠNevada":5708,"Ġreasons":5709,"ĠVietnam":5710,"ĠKarnataka":5711,"11":5712,"prod":5713,"rate":5714,"uries":5715,"Ã£":5716,"Ġens":5717,"Ġbran":5718,"Ġfarm":5719,"Ġfuture":5720,"icine":5721,"Ġcab":5722,"ellig":5723,"Ġwhole":5724,"reng":5725,"Ġindex":5726,"Ġnearby":5727,"ĠMonroe":5728,"25":5729,"bon":5730,"kee":5731,"lie":5732,"Ġsay":5733,"esa":5734,"Ġfact":5735,"ĠTob":5736,"ĠTaun":5737,"ĠMaine":5738,"ĠBec":5739,"ĠBert":5740,"Ġdise":5741,"Ġham":5742,"ĠRot":5743,"ĠRaf":5744,"ĠPuer":5745,"ĠHur":5746,"ĠHugh":5747,"eton":5748,"ĠGray":5749,"ĠKil":5750,"ĠOrig":5751,"ĠStu":5752,"ĠChi":5753,"ĠUF":5754,"apes":5755,"endar":5756,"ĠYu":5757,"ĠLeo":5758,"Ġarriv":5759,"Ġalbums":5760,"ĠCarm":5761,"ĠCarr":5762,"ĠSwan":5763,"Ġleadership":5764,"Ġcapacity":5765,"ĠEmily":5766,"ĠProvinc":5767,"hao":5768,"Ġhosted":5769,"Ġwidow":5770,"Ġwidely":5771,"Ġsource":5772,"miral":5773,"ĠGlasgow":5774,"ĠIraq":5775,"ĠLatvia":5776,"ĠBuenos":5777,"site":5778,"itter":5779,"ĠSel":5780,"Ġpul":5781,"Ġmic":5782,"ĠBest":5783,"ulated":5784,"Ġverb":5785,"rance":5786,"Ġplanned":5787,"Ġchampion":5788,"Ġelector":5789,"Ġdefin":5790,"Ġparam":5791,"ĠKenya":5792,"Ġallowed":5793,"mund":5794,"mingham":5795,"van":5796,"Ġaffect":5797,"isions":5798,"Ġborders":5799,"Ġcard":5800,"ĠTanz":5801,"Ġpur":5802,"Ġpurch":5803,"ĠRing":5804,"ĠRac":5805,"rif":5806,"urches":5807,"ĠFree":5808,"unte":5809,"iago":5810,"oti":5811,"Ġgraph":5812,"ĠOri":5813,"ĠStand":5814,"ĠVar":5815,"avan":5816,"ightly":5817,"ĠKingston":5818,"Ġ1856":5819,"ĠLouise":5820,"Ġreduced":5821,"ĠSuff":5822,"Ġglass":5823,"Ġcollection":5824,"olutionary":5825,"Ġgeomet":5826,"ĠSabha":5827,"ĠBirmingham":5828,"Ġsecretary":5829,"Ġpressure":5830,"ĠWyoming":5831,"ĠBulgaria":5832,"Ġdissolved":5833,"ĠHalifax":5834,"ĠLuxemb":5835,"ĠTanzania":5836,"ST":5837,"ault":5838,"ienced":5839,"Ġsuit":5840,"ĠCD":5841,"Ġmid":5842,"ĠEp":5843,"occer":5844,"avi":5845,"Ġ55":5846,"attal":5847,"Ã©n":5848,"Ġprograms":5849,"Ġmerger":5850,"ĠGiants":5851,"Ġnegative":5852,"Ġprobably":5853,"bane":5854,"uis":5855,"wig":5856,"Ġer":5857,"aska":5858,"ĠTro":5859,"ĠCul":5860,"ĠCort":5861,"ĠMason":5862,"ĠMund":5863,"ĠBudd":5864,"ĠPur":5865,"ĠHop":5866,"olo":5867,"ĠFall":5868,"ĠKate":5869,"ĠKrist":5870,"ovan":5871,"Ġalgebra":5872,"ĠChar":5873,"Ġchosen":5874,"Ġ43":5875,"ĠShort":5876,"phis":5877,"Ġcurve":5878,"Ġrelations":5879,"Ġaccepted":5880,"Ġminor":5881,"Ġenviron":5882,"ĠMemphis":5883,"ĠWinter":5884,"ĠJonathan":5885,"fecture":5886,"Ġidentified":5887,"ĠGilbert":5888,"ĠSerbia":5889,"ÄįÃŃn":5890,"ĠToday":5891,"Ġapplications":5892,"Ġmanuscript":5893,"ĠHotel":5894,"Ġresidential":5895,"ĠLabour":5896,"ĠBrisbane":5897,"Ġinvasion":5898,"Ġmaximum":5899,"Ġdatabases":5900,"bed":5901,"sel":5902,"orpor":5903,"isch":5904,"enge":5905,"ĠRose":5906,"Ġfore":5907,"uccess":5908,"ously":5909,"Ġadapt":5910,"annah":5911,"Ġcommander":5912,"ynomial":5913,"Ġclasses":5914,"Ġclubs":5915,"Ġexperience":5916,"ĠBobby":5917,"Ġbegins":5918,"Ġinstitutions":5919,"Ġletter":5920,"ĠWelsh":5921,"Ġsubsidi":5922,"Ġmachine":5923,"gins":5924,"lake":5925,"pire":5926,"inton":5927,"onal":5928,"isabeth":5929,"aly":5930,"Ġfil":5931,"ĠCai":5932,"Ġpseud":5933,"ĠMorn":5934,"ĠMaced":5935,"eland":5936,"ĠPers":5937,"ĠHamp":5938,"omat":5939,"ĠGrim":5940,"ĠFI":5941,"ĠFal":5942,"acement":5943,"racted":5944,"Ġhealth":5945,"Ġchain":5946,"Ġuns":5947,"ĠNews":5948,"ĠMars":5949,"ruction":5950,"obile":5951,"Ġbecomes":5952,"ĠFranz":5953,"oya":5954,"rone":5955,"Ġ1925":5956,"Ġblood":5957,"Ġ1865":5958,"ĠMinne":5959,"roll":5960,"ĠBaseball":5961,"Ġyoungest":5962,"Ġnovels":5963,"Ġequation":5964,"Ġworldwide":5965,"Ġstrateg":5966,"Ġsuccessfully":5967,"ĠCountry":5968,"ĠZhu":5969,"Ġconductor":5970,"ĠPremier":5971,"ĠColombia":5972,"ĠNottingham":5973,"Ġbotan":5974,"ĠNepal":5975,"Ġbranches":5976,"Ġforeign":5977,"action":5978,"found":5979,"uation":5980,"Ġ#":5981,"Ġfestival":5982,"Ġlif":5983,"ĠNot":5984,"ĠWhe":5985,"raw":5986,"umn":5987,"oda":5988,"odies":5989,"Ġrather":5990,"Ġretirement":5991,"ĠAbb":5992,"Ġolder":5993,"Ġclassified":5994,"ĠOliv":5995,"Ġsisters":5996,"ĠChampionships":5997,"Ġcaused":5998,"ba":5999,"hold":6000,"hatt":6001,"kh":6002,"kov":6003,"mith":6004,"pool":6005,"sal":6006,"xi":6007,"ĠSull":6008,"ĠTerry":6009,"Ġmakes":6010,"ĠBan":6011,"ĠRic":6012,"Ġlists":6013,"Ġey":6014,"oto":6015,"otic":6016,"agar":6017,"ĠVid":6018,"Ġconver":6019,"Ġheard":6020,"akk":6021,"Ġcho":6022,"Ġrac":6023,"Ġrugby":6024,"quis":6025,"inals":6026,"Ġ45":6027,"Ġwriting":6028,"aja":6029,"Ġpolynomial":6030,"yll":6031,"Ġtraditions":6032,"afs":6033,"ĠBrend":6034,"Ġpaint":6035,"ĠSimpson":6036,"ĠBhar":6037,"scar":6038,"ĠLuis":6039,"Ġconcent":6040,"ĠTaluka":6041,"Ġconditions":6042,"Ġcelebrated":6043,"ĠAaron":6044,"Ġprincip":6045,"ĠLebanon":6046,"Ġlicensed":6047,"ĠPuerto":6048,"Ġtet":6049,"Ġpath":6050,"Ġdiag":6051,"ĠNi":6052,"rical":6053,"Ġkin":6054,"Ġrough":6055,"ashi":6056,"Ġrecords":6057,"Ġrain":6058,"Ġmanagement":6059,"ĠÅł":6060,"ĠArnold":6061,"ĠLtd":6062,"Ã£o":6063,"90":6064,"dale":6065,"sey":6066,"uct":6067,"edo":6068,"Ġcounter":6069,"ĠSaw":6070,"ĠCher":6071,"ĠMember":6072,"oux":6073,"Ġmyst":6074,"leas":6075,"ĠIce":6076,"Ġhier":6077,"ĠLis":6078,"Ġliving":6079,"ĠJa":6080,"Ġnumbers":6081,"ĠKash":6082,"Ġthir":6083,"illed":6084,"illery":6085,"Ġconson":6086,"Ġanarch":6087,"Ġunits":6088,"inald":6089,"phy":6090,"Ġcontent":6091,"Ġ500":6092,"Ġ155":6093,"ĠHenri":6094,"ĠLaur":6095,"Ġprofessionally":6096,"Ġlegal":6097,"rief":6098,"ĠByron":6099,"Ġactivist":6100,"Ã¢r":6101,"Ġissued":6102,"ĠBetween":6103,"ĠCambridge":6104,"Ġrecommended":6105,"Ġacademic":6106,"ĠTaunton":6107,"ĠSuffolk":6108,"Ġlink":6109,"ĠNetwork":6110,"ĠEle":6111,"Ġplaces":6112,"Ġchore":6113,"Ġrid":6114,"uthors":6115,"ĠPortland":6116,"Ġepisodes":6117,"Ġswim":6118,"Ġaccompan":6119,"23":6120,"TV":6121,"oque":6122,"ĠTab":6123,"ĠTimes":6124,"ĠCinc":6125,"ĠAD":6126,"ilo":6127,"oust":6128,"ĠRem":6129,"ĠReb":6130,"ĠHon":6131,"ĠJen":6132,"ĠJama":6133,"ĠFried":6134,"ĠWag":6135,"romagnetic":6136,"Ġstore":6137,"angar":6138,"ĠLeafs":6139,"Ġitself":6140,"Ġmusicians":6141,"Ġ1913":6142,"innati":6143,"Ġ1899":6144,"rive":6145,"Ġentry":6146,"Ġmeters":6147,"ĠLaura":6148,"Ġalongside":6149,"Ġpositive":6150,"Ġ1805":6151,"ĠHunter":6152,"ĠHunts":6153,"Ġeighth":6154,"ĠUniversal":6155,"ĠCosta":6156,"Ġarrested":6157,"ĠCincinnati":6158,"pro":6159,"Ġille":6160,"rel":6161,"ĠSultan":6162,"ĠTs":6163,"ĠTig":6164,"Ġpron":6165,"ĠMaster":6166,"ĠBuck":6167,"ĠIstanbul":6168,"ĠDrum":6169,"Ġreign":6170,"ĠKam":6171,"Ġanti":6172,"izations":6173,"Ġclimb":6174,"Ġmove":6175,"iously":6176,"Ġdecor":6177,"Ġfeet":6178,"Ã¼r":6179,"Ġmatrix":6180,"Ġelectromagnetic":6181,"Ġrefused":6182,"Ġperformances":6183,"Ġdynasty":6184,"Ġilleg":6185,"IT":6186,"hard":6187,"zant":6188,"andy":6189,"Ġskin":6190,"Ġsession":6191,"itled":6192,"ĠSout":6193,"ĠTan":6194,"Ġput":6195,"Ġmagnetic":6196,"ĠBull":6197,"ĠRu":6198,"ĠRow":6199,"ĠRico":6200,"ĠHunt":6201,"ĠJava":6202,"Ġreview":6203,"terson":6204,"terbury":6205,"owers":6206,"lying":6207,"acey":6208,"ĠKol":6209,"Ġstone":6210,"oche":6211,"Ġ38":6212,"Ġreports":6213,"Ġ42":6214,"Ġcontrast":6215,"ĠTowns":6216,"ĠCanterbury":6217,"Ġconsolidated":6218,"Ġrelatively":6219,"ĠParagu":6220,"Ġ117":6221,"ĠCommon":6222,"rator":6223,"ĠTele":6224,"ipped":6225,"helm":6226,"ĠMadrid":6227,"ĠPatterson":6228,"Ġincumbent":6229,"ĠFlorence":6230,"Ġemigrated":6231,"ception":6232,"ĠGarcia":6233,"ĠMurphy":6234,"ĠByzant":6235,"ĠBelgrade":6236,"Ġsignificant":6237,"ĠSomalia":6238,"Ġopponent":6239,"Ġkeybo":6240,"ĠDenmark":6241,"ripts":6242,"ĠBennett":6243,"Ġinvestig":6244,"ĠArmenian":6245,"ĠHaven":6246,"ĠRobinson":6247,"Ġagreement":6248,"ĠDisney":6249,"ĠHampshire":6250,"ĠBat":6251,"ithm":6252,"ully":6253,"Ġarm":6254,"Ġedited":6255,"ĠBeat":6256,"Ġoperation":6257,"Ġassociation":6258,"ĠGregory":6259,"ricultural":6260,"ĠTurner":6261,"Ġvertical":6262,"Americ":6263,"Don":6264,"RC":6265,"gale":6266,"lington":6267,"no":6268,"Ã´":6269,"heim":6270,"Ġsus":6271,"Ġbrain":6272,"Ġcry":6273,"ĠCir":6274,"Ġpra":6275,"ĠMang":6276,"ĠBot":6277,"amic":6278,"ĠIg":6279,"ĠHas":6280,"olph":6281,"ĠLions":6282,"ĠLane":6283,"Ġlatter":6284,"Ġniece":6285,"ĠFras":6286,"ivan":6287,"ĠWork":6288,"uments":6289,"odia":6290,"Ġrar":6291,"Ġcompar":6292,"ĠZhao":6293,"Ġtransform":6294,"ermo":6295,"ĠAfgh":6296,"Ġopera":6297,"Ġ1890":6298,"Ġ1895":6299,"Ġ1898":6300,"Ġtheme":6301,"ĠOrchestra":6302,"ĠRoyals":6303,"ĠSuce":6304,"Ġpassed":6305,"Ġactivities":6306,"ĠJulian":6307,"ĠWoods":6308,"ĠAzerb":6309,"ĠLucy":6310,"ĠSummer":6311,"Ġparks":6312,"Ġturned":6313,"Ġliterary":6314,"ĠMitchell":6315,"Ġsources":6316,"Ġarticle":6317,"ĠNashville":6318,"Ġmurdered":6319,"Ġaudio":6320,"Ġvirtual":6321,"ĠZemgale":6322,"ĠUkrainian":6323,"ĠSullivan":6324,"ĠAzerbai":6325,"Ġbad":6326,"Ġdro":6327,"aman":6328,"olished":6329,"ĠDig":6330,"ressive":6331,"ĠSpe":6332,"Ġcenturies":6333,"ĠGreater":6334,"Ġprime":6335,"Ġterms":6336,"Ġexperim":6337,"Ġcombined":6338,"ĠKirk":6339,"Ġenvironment":6340,"orporated":6341,"mas":6342,"oi":6343,"asm":6344,"Ġcrew":6345,"ĠSey":6346,"ĠTib":6347,"ĠCaval":6348,"ĠMach":6349,"ĠIB":6350,"ĠLike":6351,"owo":6352,"empt":6353,"ĠKumar":6354,"Ġasp":6355,"ĠOscar":6356,"osh":6357,"ĠHealth":6358,"inea":6359,"ighton":6360,"ĠLeices":6361,"ĠArts":6362,"ĠRox":6363,"ghar":6364,"Ġclin":6365,"ĠSpart":6366,"cluded":6367,"Ġregiment":6368,"Ġresistance":6369,"Ġchildhood":6370,"Ġappearance":6371,"Ġ1861":6372,"Ġ1897":6373,"Ġsolution":6374,"ĠRobb":6375,"ĠSuz":6376,"ĠPalghar":6377,"Ġattacks":6378,"Ġ1828":6379,"Ġsoutheastern":6380,"Ġadministration":6381,"Ã¤r":6382,"ĠEssex":6383,"Ġsenior":6384,"ĠTamil":6385,"ĠÂ°":6386,"ĠConstantin":6387,"Ġhyperbolic":6388,"ĠInfantry":6389,"Ġplatform":6390,"ĠGulf":6391,"ĠUganda":6392,"ĠCameron":6393,"ĠLuxembourg":6394,"ĠMinneapolis":6395,"ĠByzantine":6396,"ĠLeicester":6397,"onian":6398,"amily":6399,"eline":6400,"ĠDean":6401,"ĠNord":6402,"ider":6403,"Ġgrass":6404,"ocals":6405,"aph":6406,"Ġrecru":6407,"Ġdescend":6408,"Ġsnails":6409,"Ġbasketball":6410,"fficient":6411,"Ġcalcul":6412,"Ġzone":6413,"Ġdamaged":6414,"American":6415,"37":6416,"cular":6417,"lon":6418,"uctor":6419,"xic":6420,"itness":6421,"Ġball":6422,"Ġcost":6423,"ĠSox":6424,"ĠCu":6425,"ĠChem":6426,"ĠMond":6427,"oud":6428,"Ġmiss":6429,"ĠBath":6430,"ĠPut":6431,"ĠHed":6432,"ĠLog":6433,"Ġreform":6434,"uration":6435,"ĠFA":6436,"cht":6437,"ĠWan":6438,"ema":6439,"agreb":6440,"ocol":6441,"Ġcomedy":6442,"quet":6443,"ĠYug":6444,"ĠMarian":6445,"Ġ65":6446,"Ġteaching":6447,"ĠZagreb":6448,"ĠCanal":6449,"Ġunderground":6450,"aux":6451,"Ġtransfer":6452,"ĠGuad":6453,"Ġpoly":6454,"Ġphase":6455,"Ġ1902":6456,"Ġ1869":6457,"Ġbands":6458,"Ġ1851":6459,"Ġairline":6460,"ĠSeason":6461,"Ġvariable":6462,"Ġproduce":6463,"ĠBook":6464,"ĠHoly":6465,"Ġmarketed":6466,"ĠMichel":6467,"Ġindustry":6468,"ĠAmbassador":6469,"ĠMorton":6470,"ĠMunich":6471,"Ġnominated":6472,"ĠPedro":6473,"Ġnumerous":6474,"Ġprior":6475,"ĠBengal":6476,"ĠPitts":6477,"ĠFriedrich":6478,"ĠAzerbaijan":6479,"een":6480,"ÅĤ":6481,"arge":6482,"Ġbra":6483,"Ġfellow":6484,"Ġpool":6485,"Ġpiano":6486,"ĠBrand":6487,"Ġhaving":6488,"Ġlit":6489,"Ġnation":6490,"ĠFriend":6491,"Ġground":6492,"ested":6493,"Ġconvers":6494,"weight":6495,"Ġsouthwestern":6496,"ĠConference":6497,"Ġupd":6498,"Ġgenre":6499,"Ġdoctor":6500,"Ġfaith":6501,"ĠAndrews":6502,"Ġpowerful":6503,"ĠHelen":6504,"Ġlearned":6505,"ĠCroatia":6506,"ĠHawaii":6507,"uccessful":6508,"Ġunsuccessful":6509,"15":6510,"bridge":6511,"hill":6512,"kill":6513,"ving":6514,"Ġwedd":6515,"atin":6516,"itia":6517,"Ġcuis":6518,"ĠSis":6519,"ĠSac":6520,"ĠSul":6521,"ĠSyr":6522,"ĠCurt":6523,"Ġpack":6524,"Ġmel":6525,"ĠBass":6526,"Ġtoo":6527,"Ġdens":6528,"Ġdriver":6529,"ĠIV":6530,"ĠHo":6531,"ĠHome":6532,"ĠDue":6533,"ĠWilm":6534,"ĠEas":6535,"ista":6536,"ĠInc":6537,"ecil":6538,"ĠStra":6539,"Ġprote":6540,"ĠVo":6541,"ateur":6542,"ube":6543,"Ġplans":6544,"Ġchurches":6545,"Ġshr":6546,"ilding":6547,"ĠSouthampton":6548,"ĠClay":6549,"ĠClass":6550,"Ġattribut":6551,"ĠGuinea":6552,"Ġsuppor":6553,"Ġexpected":6554,"Ġassembly":6555,"ĠEmpire":6556,"ĠMorris":6557,"Ġdecides":6558,"Ġweeks":6559,"Ġiniti":6560,"Ġhelped":6561,"ĠDevon":6562,"ĠCuban":6563,"ĠWallace":6564,"ĠJesse":6565,"Ġmemory":6566,"Ġmanuscripts":6567,"ĠCroatian":6568,"Ġdominant":6569,"ĠIslamic":6570,"oustic":6571,"PI":6572,"SA":6573,"aust":6574,"eep":6575,"nel":6576,"Ġtarg":6577,"ications":6578,"ĠBav":6579,"Ġhope":6580,"ading":6581,"ibility":6582,"Ġscra":6583,"Ġexplor":6584,"Ġdiff":6585,"Ġvisible":6586,"Ġcounties":6587,"Ġprogramme":6588,"ĠSenior":6589,"Ġclear":6590,"Ġoccupied":6591,"Ġopposite":6592,"prise":6593,"Ġgranted":6594,"Ġkilomet":6595,"Ġrecruited":6596,"joy":6597,"smith":6598,"orf":6599,"Ġsung":6600,"icy":6601,"ĠSeg":6602,"ĠCi":6603,"ĠCr":6604,"Ġpati":6605,"oles":6606,"ĠLiver":6607,"ĠLuke":6608,"ĠDiamond":6609,"ĠJerry":6610,"ĠNak":6611,"ĠNancy":6612,"ĠGun":6613,"ĠFres":6614,"ĠKings":6615,"ĠOut":6616,"umes":6617,"ĠVij":6618,"ĠUl":6619,"Ġrepeated":6620,"Ġclothing":6621,"Ġjudge":6622,"ĠShel":6623,"Ġprovide":6624,"Ġscenes":6625,"Ġretained":6626,"oyle":6627,"Ã©e":6628,"uki":6629,"Ġ156":6630,"ĠBeij":6631,"Ġquest":6632,"Ġ110":6633,"Ġ1862":6634,"ĠOrland":6635,"Ġfinite":6636,"Ġpoem":6637,"Ġtemple":6638,"Ġ1846":6639,"ĠColumbus":6640,"Ġactivity":6641,"Ġrespons":6642,"ĠPanama":6643,"Ġanalysis":6644,"uddin":6645,"ĠBreton":6646,"Ġcorresponding":6647,"ĠGarden":6648,"ĠAhmed":6649,"ĠHollywood":6650,"ĠWesley":6651,"ĠVillage":6652,"ĠMiddles":6653,"ĠBerkshire":6654,"ĠLottiidae":6655,"Ġpatients":6656,"ĠBeijing":6657,"greg":6658,"uce":6659,"Ġaway":6660,"Ġbrief":6661,"Ġcemetery":6662,"ĠMore":6663,"Ġdrama":6664,"ĠPot":6665,"ĠHad":6666,"Ġlie":6667,"ĠDuke":6668,"riet":6669,"ĠJal":6670,"Ġnecess":6671,"istics":6672,"Ġstaged":6673,"Ġstreng":6674,"Ġsex":6675,"Ġroc":6676,"ĠHarold":6677,"Ġremoved":6678,"ĠExchange":6679,"ĠPrimary":6680,"Ġextremely":6681,"Ġupdated":6682,"EE":6683,"eastern":6684,"Ġ?":6685,"Ġtropical":6686,"isi":6687,"Ġwinning":6688,"arat":6689,"ening":6690,"atem":6691,"Ġfar":6692,"ĠSeb":6693,"ĠCob":6694,"ĠCrow":6695,"ĠABC":6696,"Ġdon":6697,"ĠIz":6698,"state":6699,"ĠLah":6700,"riel":6701,"imil":6702,"artz":6703,"ĠChuck":6704,"ifer":6705,"ako":6706,"ongol":6707,"Ġorche":6708,"Ġcomponent":6709,"Ġkg":6710,"Ġexecut":6711,"Ġ57":6712,"ĠYorkshire":6713,"ramer":6714,"Ġmoder":6715,"Ġinterp":6716,"ĠChristine":6717,"Ġdisapp":6718,"Ã¶t":6719,"ĠMoore":6720,"Ġstatus":6721,"ĠSteven":6722,"archy":6723,"Ġslightly":6724,"ĠHorace":6725,"Ġproblem":6726,"ĠRhodes":6727,"ĠHardy":6728,"Ġcolonial":6729,"Ġsquare":6730,"ĠSolom":6731,"ladesh":6732,"ĠBangladesh":6733,"brevi":6734,"Ġearliest":6735,"ĠBristol":6736,"ĠBombay":6737,"ĠSpecial":6738,"ĠMansfield":6739,"ĠHopkins":6740,"last":6741,"Ġtend":6742,"icult":6743,"ĠCod":6744,"ĠCivil":6745,"ĠPy":6746,"ĠEqu":6747,"ĠOff":6748,"Ġvocals":6749,"ĠMarine":6750,"Ġrow":6751,"ibl":6752,"ĠEnd":6753,"Ġagent":6754,"ĠHarrison":6755,"Ġintellig":6756,"ĠÃħ":6757,"Ġeducational":6758,"Ġavoid":6759,"Ġadvant":6760,"ĠPierre":6761,"Ġlandscape":6762,"Ġsubsequently":6763,"82":6764,"ek":6765,"feld":6766,"hurst":6767,"ieth":6768,"rm":6769,"Ġx":6770,"Ġrich":6771,"edin":6772,"Ġinaug":6773,"Ġwall":6774,"ĠTrent":6775,"ĠTwin":6776,"Ġphen":6777,"ĠMey":6778,"Ġment":6779,"ĠRena":6780,"ĠPont":6781,"ĠLem":6782,"ĠGim":6783,"ĠWi":6784,"emen":6785,"idad":6786,"utional":6787,"ĠKo":6788,"rome":6789,"ĠUm":6790,"ĠHeights":6791,"Ġspread":6792,"oka":6793,"Ġyards":6794,"izing":6795,"Ġsecure":6796,"Ġresign":6797,"ĠEduc":6798,"Ġimage":6799,"Ġimpress":6800,"ĠCliff":6801,"Ġ166":6802,"Ġnearly":6803,"ĠAugustus":6804,"ĠNova":6805,"Ġreplacement":6806,"Ġtrav":6807,"Ġoffices":6808,"Ġ1889":6809,"ĠRobertson":6810,"Ġ1868":6811,"ĠRichmond":6812,"Ġsimply":6813,"Ġgreater":6814,"ĠAgass":6815,"ĠSantiago":6816,"ĠLouisiana":6817,"ĠÃĹ":6818,"Ġpassengers":6819,"Ġprojects":6820,"restler":6821,"ĠSuperst":6822,"ĠImperial":6823,"ĠCommunity":6824,"ĠIvan":6825,"Ġclean":6826,"ĠTyler":6827,"ĠBroadway":6828,"Ġtwenty":6829,"stadt":6830,"ĠTrenÄįÃŃn":6831,"rupt":6832,"ĠRepresentatives":6833,"ĠBjÃ¶rk":6834,"ĠSecretary":6835,"Ġcitizens":6836,"Ġpaintings":6837,"Ġrarely":6838,"ĠAfghan":6839,"ĠYugosl":6840,"Ġdensity":6841,"iec":6842,"Ġir":6843,"Ġwings":6844,"Ġster":6845,"Ġcred":6846,"ĠHannah":6847,"iva":6848,"Ġorient":6849,"Ġlevels":6850,"cles":6851,"ĠConc":6852,"Ġconservative":6853,"ĠAssoci":6854,"Ġinters":6855,"Ġtitles":6856,"Ġtypical":6857,"amental":6858,"Ġmulti":6859,"Ġreading":6860,"ĠLoren":6861,"Ġarrang":6862,"ĠHumph":6863,"ehic":6864,"Ġfavor":6865,"ĠTigers":6866,"91":6867,"95":6868,"organ":6869,"arin":6870,"Ġbill":6871,"esar":6872,"icians":6873,"ĠSud":6874,"ĠTar":6875,"Ġmagn":6876,"ĠBald":6877,"Ġdi":6878,"Ġdipl":6879,"ĠPabl":6880,"ĠHud":6881,"ĠDum":6882,"ĠJud":6883,"ĠGerald":6884,"ĠFitz":6885,"ĠWells":6886,"terian":6887,"emic":6888,"rach":6889,"raham":6890,"Ġstab":6891,"Ġstations":6892,"ovi":6893,"orne":6894,"Ġcomment":6895,"Ġheavy":6896,"ishn":6897,"Ġchannel":6898,"ĠAld":6899,"ĠAless":6900,"Ġyouth":6901,"ĠArena":6902,"Ġshopping":6903,"ghts":6904,"teneg":6905,"Ġmovements":6906,"Ġ73":6907,"aukee":6908,"Ġattempt":6909,"ĠMcL":6910,"byterian":6911,"ĠMalm":6912,"ĠAllan":6913,"stitution":6914,"ĠPolice":6915,"Ġminutes":6916,"ĠMonteneg":6917,"ĠSchw":6918,"Ġorganis":6919,"Ġ1815":6920,"Ġshowed":6921,"Ġconfig":6922,"ĠAnnie":6923,"ĠVictorian":6924,"Ġfunctional":6925,"ĠOtto":6926,"Ġtranslator":6927,"ĠBradford":6928,"Ġships":6929,"Ġinvestment":6930,"Ġarticles":6931,"ĠSlovakia":6932,"Ġwebsite":6933,"ĠVenezuela":6934,"Ġambassador":6935,"ĠAmazon":6936,"Ġpseudonym":6937,"Ġbotanist":6938,"gely":6939,"onents":6940,"oral":6941,"Ġsaf":6942,"Ġfood":6943,"Ġcam":6944,"ĠDraft":6945,"eto":6946,"add":6947,"Ġnature":6948,"ache":6949,"ĠVic":6950,"ĠChampion":6951,"ĠUs":6952,"aped":6953,"ĠAlp":6954,"Ġshare":6955,"Ġroom":6956,"ensis":6957,"Ġflight":6958,"Ġlargely":6959,"owski":6960,"Ġoldest":6961,"Ġpromote":6962,"Ġpositions":6963,"arged":6964,"Ġcritical":6965,"Ġcopies":6966,"Ġsynd":6967,"Ġconducted":6968,"Ġembassy":6969,"Ġmotor":6970,"Ġcontributions":6971,"13":6972,"lit":6973,"inyl":6974,"itude":6975,"Ġcall":6976,"Ġcell":6977,"Ġcovers":6978,"ĠCov":6979,"ĠAer":6980,"ĠAra":6981,"ĠMD":6982,"ĠMig":6983,"lew":6984,"leen":6985,"elong":6986,"ĠPictures":6987,"olly":6988,"ĠLomb":6989,"Ġlo":6990,"ĠNg":6991,"ĠGate":6992,"ĠFlet":6993,"ĠFellow":6994,"utral":6995,"ĠKey":6996,"Ġthin":6997,"Ġalgor":6998,"Ġvinyl":6999,"Ġproced":7000,"ĠVik":7001,"Ġdeleg":7002,"ogue":7003,"text":7004,"Ġshorter":7005,"Ġabbrevi":7006,"Ġfilmed":7007,"Ġrights":7008,"ĠBarcel":7009,"ĠAndrÃ©":7010,"Ġrelocated":7011,"Ġrepresenting":7012,"ĠValencia":7013,"ĠNorwich":7014,"Ġneutral":7015,"Ġ1819":7016,"Ġprogramming":7017,"iju":7018,"Ġoccurs":7019,"ĠÃģ":7020,"Ġcrossing":7021,"ĠOldham":7022,"ĠJefferson":7023,"Ġconstructed":7024,"Ġteachers":7025,"ĠRodrig":7026,"ĠTrail":7027,"ĠZhou":7028,"Ġflowers":7029,"Ġtwentieth":7030,"ĠTrinity":7031,"Ġjunior":7032,"Ġequivalent":7033,"ĠTogether":7034,"Ġpossibly":7035,"Ġdisease":7036,"Ġwedding":7037,"ĠHudson":7038,"ĠCovent":7039,"ĠFletcher":7040,"ĠBarcelona":7041,"RA":7042,"part":7043,"ĠTot":7044,"Ġdism":7045,"ĠRang":7046,"Ġrequired":7047,"ĠNeb":7048,"emann":7049,"ĠInt":7050,"Ġgot":7051,"Ġseems":7052,"Ġchann":7053,"Ġformation":7054,"Ġquick":7055,"Ġnortheastern":7056,"ĠSmall":7057,"Ġmatches":7058,"Ġtechnology":7059,"Ġfeatured":7060,"Ġfront":7061,"Ġgrows":7062,"ĠDefence":7063,"ĠMohammad":7064,"ĠPablo":7065,"Ġchannels":7066,"200":7067,"MA":7068,"hav":7069,"nÃ¡":7070,"put":7071,"Ãª":7072,"Ġult":7073,"Ġtens":7074,"anes":7075,"oration":7076,"asis":7077,"Ġfres":7078,"Ġfire":7079,"ĠSas":7080,"Ġpen":7081,"ĠMov":7082,"ĠMall":7083,"ĠBun":7084,"ĠBian":7085,"ĠRain":7086,"ĠReal":7087,"ĠPand":7088,"ĠPey":7089,"ĠLut":7090,"ĠLars":7091,"Ġlik":7092,"ĠDJ":7093,"adle":7094,"ĠNations":7095,"Ġnuc":7096,"ĠFighter":7097,"ĠWu":7098,"ĠWol":7099,"ĠEsc":7100,"Ġgar":7101,"agues":7102,"ĠOm":7103,"Ġvocal":7104,"eville":7105,"ĠAlice":7106,"Ġ58":7107,"ĠFranÃ§":7108,"Ġbroke":7109,"Ġresidence":7110,"ĠComb":7111,"Ġrivers":7112,"ancell":7113,"ĠGeomet":7114,"ĠProd":7115,"ĠCalc":7116,"ĠCarroll":7117,"ĠHarper":7118,"Ġsubt":7119,"chester":7120,"ĠCook":7121,"Ġsoldiers":7122,"ydro":7123,"ĠManila":7124,"ĠBasque":7125,"ĠOlt":7126,"Ġhistorian":7127,"Ġrestaur":7128,"Ġtempor":7129,"ĠMerid":7130,"Ġ1830":7131,"ĠMoz":7132,"Ġcollected":7133,"Ġcrosses":7134,"ĠDespite":7135,"ĠDalton":7136,"Ġideal":7137,"opped":7138,"Ġcopy":7139,"Ġneighbour":7140,"ĠÅģ":7141,"ĠLima":7142,"ĠLinda":7143,"ĠHavana":7144,"ĠBryan":7145,"Ġapplication":7146,"ĠFelix":7147,"ĠHughes":7148,"Ġbelongs":7149,"ĠMarshall":7150,"Ġsurrounding":7151,"ĠEugene":7152,"ĠWorcestershire":7153,"Ġcabinet":7154,"ĠConstantinople":7155,"Ġcuisine":7156,"ĠOrlando":7157,"LC":7158,"ering":7159,"ands":7160,"Ġsat":7161,"Ġpione":7162,"ĠNav":7163,"ĠShip":7164,"Ġacid":7165,"Ġacoustic":7166,"ĠChristians":7167,"Ġelim":7168,"Ġoccur":7169,"Ġnewspapers":7170,"Ġspeak":7171,"Ġoccasional":7172,"Ġkinetic":7173,"HP":7174,"eo":7175,"jiang":7176,"tz":7177,"Ġathlet":7178,"ori":7179,"ises":7180,"ĠTol":7181,"rose":7182,"ĠAqu":7183,"ĠMot":7184,"ĠMab":7185,"ĠMongol":7186,"Ġmigrated":7187,"leman":7188,"Ġisol":7189,"Ġhab":7190,"ĠRan":7191,"ĠRud":7192,"ĠRica":7193,"ĠPurd":7194,"omers":7195,"ĠLus":7196,"ĠLum":7197,"ĠLight":7198,"ĠJar":7199,"ĠJournal":7200,"ctu":7201,"ĠFinally":7202,"aco":7203,"estone":7204,"alli":7205,"Ġuniform":7206,"ective":7207,"ĠYunn":7208,"ĠLex":7209,"class":7210,"Ġ48":7211,"ĠShir":7212,"ĠZimb":7213,"Ġ76":7214,"ĠScar":7215,"Ġdefend":7216,"ĠEdith":7217,"ĠEddie":7218,"orsal":7219,"auer":7220,"ĠAdela":7221,"Ġ1914":7222,"ĠGuatem":7223,"fordshire":7224,"Ġ1884":7225,"Ġmonaster":7226,"ĠManager":7227,"Ġ1877":7228,"Ġ1813":7229,"ĠScotia":7230,"load":7231,"Ġstatement":7232,"Ġroads":7233,"Ġ1776":7234,"Ġmechanics":7235,"Ä±k":7236,"Ġcopper":7237,"ĠPune":7238,"ĠJennifer":7239,"ĠCraig":7240,"Ġfrag":7241,"Ġinstruments":7242,"Ġoxide":7243,"ĠPresbyterian":7244,"ĠBrigade":7245,"Ġcollaboration":7246,"inguished":7247,"Ġmathematical":7248,"Ġsequence":7249,"ĠGriffith":7250,"ĠEduardo":7251,"Ġsubsidiary":7252,"Ġeyes":7253,"Ġconsonant":7254,"ĠHuntsman":7255,"Ġorchest":7256,"ĠGeometridae":7257,"ĠPurdue":7258,"ĠYunnan":7259,"ĠAdelaide":7260,"sson":7261,"Ġfast":7262,"Ġcalls":7263,"Ġpure":7264,"ĠIron":7265,"Ġhit":7266,"ĠDiocese":7267,"usion":7268,"ĠKa":7269,"raction":7270,"Ġstaff":7271,"ukh":7272,"ĠDeath":7273,"ealth":7274,"ĠOblast":7275,"ĠMuham":7276,"Ġscholar":7277,"Ġdancer":7278,"ĠMaurice":7279,"ĠBrothers":7280,"Ġscrapped":7281,"Ġnecessary":7282,"30":7283,"99":7284,"down":7285,"isen":7286,"andro":7287,"Ġinhab":7288,"aris":7289,"reat":7290,"Ġbal":7291,"Ġcyl":7292,"ĠSug":7293,"ĠTat":7294,"ĠTun":7295,"Ġpal":7296,"Ġpup":7297,"iled":7298,"ĠMagn":7299,"ĠBud":7300,"inger":7301,"ingen":7302,"ĠRice":7303,"ĠPi":7304,"ĠPap":7305,"ĠLo":7306,"ĠDrive":7307,"ader":7308,"urated":7309,"ĠFab":7310,"ĠKab":7311,"ĠKatherine":7312,"raine":7313,"Ġstadium":7314,"eared":7315,"Ġorchestra":7316,"ĠAlaska":7317,"ĠThir":7318,"ryn":7319,"phony":7320,"ĠZur":7321,"ĠRomanian":7322,"ĠElisabeth":7323,"encies":7324,"elyn":7325,"ĠEdgar":7326,"Ġ168":7327,"Ġ81":7328,"Ġflat":7329,"ĠMcE":7330,"ĠIndians":7331,"ĠMalta":7332,"Ġaccount":7333,"Ġ1857":7334,"ĠOrle":7335,"ĠMonte":7336,"hess":7337,"Ġcontinue":7338,"ĠSalem":7339,"Ġlegend":7340,"Ġcoastal":7341,"raska":7342,"ĠSteel":7343,"ĠBuilding":7344,"ĠMills":7345,"ĠDemocrats":7346,"ĠCardiff":7347,"Ġsynt":7348,"Ġelementary":7349,"Ġnegoti":7350,"Ġintegral":7351,"ĠWayne":7352,"Ġabsor":7353,"ĠHarvey":7354,"ĠDewey":7355,"ĠNigeria":7356,"ĠCedar":7357,"ĠWarsaw":7358,"Ġresignation":7359,"ĠMontenegro":7360,"Ġnucle":7361,"sky":7362,"Ġ/":7363,"Ġwinner":7364,"Ġfir":7365,"Ġfoot":7366,"ĠBil":7367,"ĠLocal":7368,"Ġnob":7369,"ĠKl":7370,"illo":7371,"ogical":7372,"ĠYour":7373,"ansion":7374,"ĠAtt":7375,"Ġcolour":7376,"Ġaddress":7377,"Ġmedicine":7378,"Ġstarts":7379,"Ġorganizations":7380,"ographical":7381,"Ġcommonly":7382,"Ġprocesses":7383,"ĠJonas":7384,"Ġuniversal":7385,"ĠHungarian":7386,"Ġfocus":7387,"27":7388,"77":7389,"bal":7390,"czy":7391,"forth":7392,"waukee":7393,"ÅĦ":7394,"Ġtries":7395,"alie":7396,"itted":7397,"ĠSav":7398,"ĠSoccer":7399,"ĠTusc":7400,"ĠCI":7401,"Ġpapers":7402,"ĠMS":7403,"ĠBapt":7404,"Ġdimens":7405,"ĠRivers":7406,"ĠPÃ©":7407,"ĠPena":7408,"ĠLill":7409,"ĠDC":7410,"ĠDix":7411,"ĠDale":7412,"ĠNun":7413,"usa":7414,"ĠErie":7415,"acio":7416,"Ġgard":7417,"illermo":7418,"Ġvehic":7419,"ipel":7420,"abi":7421,"ably":7422,"abwe":7423,"owned":7424,"ĠAlma":7425,"ritz":7426,"oster":7427,"atern":7428,"Ġ49":7429,"Ġresear":7430,"ferm":7431,"ĠNorthumberland":7432,"ĠWillie":7433,"ixed":7434,"ĠMayer":7435,"ussels":7436,"Ġgene":7437,"ĠGuang":7438,"ĠGuillermo":7439,"Ġ157":7440,"Ġremove":7441,"ĠAlej":7442,"ĠPolit":7443,"Ġmanages":7444,"Ġ1879":7445,"ĠLaure":7446,"ĠBrussels":7447,"ĠHerz":7448,"Ġdescribes":7449,"ĠReed":7450,"ĠMilwaukee":7451,"elected":7452,"ĠWeaver":7453,"Ġphysically":7454,"ĠBrowns":7455,"ĠAlbany":7456,"Ġgoal":7457,"Ġpattern":7458,"ĠServices":7459,"ĠConservative":7460,"Ġexception":7461,"ĠEllis":7462,"Ġprobability":7463,"Ġelectrical":7464,"ĠNobel":7465,"Ġcategory":7466,"ĠYugoslavia":7467,"ĠMiguel":7468,"Ġtemporarily":7469,"Ġhabit":7470,"ĠZimbabwe":7471,"ĠGuatemala":7472,"ĠBaptist":7473,"33":7474,"mission":7475,"uate":7476,"Ġauthors":7477,"enb":7478,"ĠSor":7479,"ĠSter":7480,"ĠMull":7481,"Ġdoll":7482,"ĠPsal":7483,"Ġgram":7484,"aved":7485,"antly":7486,"geon":7487,"Ġraces":7488,"Ġcompris":7489,"ĠThat":7490,"Ġlect":7491,"ĠShar":7492,"Ġadj":7493,"ĠJanet":7494,"Ġprep":7495,"Ġofficers":7496,"Ġ1859":7497,"Ġdistance":7498,"rolled":7499,"ĠPeace":7500,"urious":7501,"Ġbelieved":7502,"Ġwhether":7503,"14":7504,"KP":7505,"card":7506,"din":7507,"fi":7508,"gi":7509,"gio":7510,"iqu":7511,"mi":7512,"mour":7513,"onse":7514,"Ġways":7515,"Ġwants":7516,"icted":7517,"ĠCumberland":7518,"ĠBonnie":7519,"elle":7520,"ĠRA":7521,"ĠRest":7522,"ĠPod":7523,"ĠPok":7524,"ĠHat":7525,"omot":7526,"ĠDevelop":7527,"ĠJing":7528,"ĠNBC":7529,"ĠFu":7530,"ĠFac":7531,"ĠWrit":7532,"imo":7533,"Ġgym":7534,"agement":7535,"ĠStaff":7536,"Ġvector":7537,"ĠCharter":7538,"aby":7539,"ĠHector":7540,"Ġsections":7541,"endent":7542,"shore":7543,"Ġcham":7544,"ĠMarket":7545,"ĠMartha":7546,"ango":7547,"Ġshares":7548,"ebu":7549,"ails":7550,"annock":7551,"Ġstudios":7552,"ĠPhoen":7553,"ĠClinton":7554,"etta":7555,"ĠMayor":7556,"ĠBlo":7557,"Ġactual":7558,"Ġcreation":7559,"Ġquality":7560,"Ġ1882":7561,"Ġ1886":7562,"ĠWarwick":7563,"Ġmedium":7564,"ĠAbel":7565,"ĠAbraham":7566,"ĠPerry":7567,"Ġtwin":7568,"ĠAval":7569,"ĠLegend":7570,"ĠMurd":7571,"Ġcollections":7572,"Ġgoals":7573,"Ġcalendar":7574,"ĠLimited":7575,"Ġcolonies":7576,"Ġcondition":7577,"Ġsquadron":7578,"ĠSusan":7579,"ĠSeven":7580,"ĠSeveral":7581,"ographed":7582,"Ġcyclist":7583,"ĠChandler":7584,"ĠPublications":7585,"ĠStrateg":7586,"ĠDahanu":7587,"ĠGabriel":7588,"ĠDakota":7589,"ĠVincent":7590,"Ġbirds":7591,"Ġpartnership":7592,"Ġsuffered":7593,"ĠBuddh":7594,"Ġaccompanied":7595,"ĠDrummond":7596,"Ġpraised":7597,"ĠSeymour":7598,"Ġinaugurated":7599,"Ġfresh":7600,"ipelago":7601,"87":7602,"far":7603,"Ġwealth":7604,"Ġface":7605,"Ġharm":7606,"ĠRey":7607,"ĠRural":7608,"Ġlies":7609,"cts":7610,"ĠWoll":7611,"ĠEach":7612,"Ġeas":7613,"ĠKy":7614,"Ġven":7615,"ĠVis":7616,"ĠScience":7617,"Ġscale":7618,"ĠPhys":7619,"Ġconsec":7620,"Ġpref":7621,"Ġflag":7622,"Ġintended":7623,"Ġvariet":7624,"Ġcircuit":7625,"gressive":7626,"ĠAutonomous":7627,"Ġcoordinates":7628,"produced":7629,"ĠProvincial":7630,"attalion":7631,"based":7632,"lift":7633,"now":7634,"oj":7635,"sborough":7636,"tÄĥ":7637,"ÄĻ":7638,"Å£":7639,"Ġid":7640,"Ġtunn":7641,"orge":7642,"atche":7643,"asc":7644,"icist":7645,"Ġche":7646,"ĠSE":7647,"ĠSou":7648,"ĠSask":7649,"ĠTong":7650,"ĠTerm":7651,"ĠTourn":7652,"ĠCore":7653,"ĠCao":7654,"ĠCrane":7655,"ĠCosm":7656,"ĠAx":7657,"ĠMoin":7658,"Ġmig":7659,"ĠBron":7660,"Ġdemocrat":7661,"ĠIb":7662,"ĠRange":7663,"ĠPep":7664,"olan":7665,"Ġlack":7666,"ĠDim":7667,"ĠGw":7668,"ĠFritz":7669,"ĠWW":7670,"emy":7671,"ĠIntern":7672,"ĠKann":7673,"ĠOrange":7674,"Ġveter":7675,"ĠVil":7676,"ĠChild":7677,"ablish":7678,"oga":7679,"ĠYam":7680,"ĠMarco":7681,"Ġarr":7682,"ĠSport":7683,"aware":7684,"oba":7685,"asha":7686,"emble":7687,"ĠBlanche":7688,"Ġmanif":7689,"ĠHarlem":7690,"ĠGuard":7691,"Ġsubordin":7692,"Ġrap":7693,"ĠAirlift":7694,"Ã¡l":7695,"ĠWalsh":7696,"ertes":7697,"Ġ1908":7698,"ĠAlliance":7699,"Ġepil":7700,"Ġrecept":7701,"ĠExp":7702,"Ġvariab":7703,"ĠReginald":7704,"ĠMao":7705,"ĠPalmer":7706,"ĠDunedin":7707,"Ġhelps":7708,"ĠDelaware":7709,"ĠJulia":7710,"Ġadministrator":7711,"Ġsurviving":7712,"ariant":7713,"Ġfinds":7714,"Ġmechanism":7715,"Ġautonomous":7716,"Ġindividuals":7717,"ĠCommunications":7718,"ĠTerrit":7719,"Ġsense":7720,"ĠCatal":7721,"ĠEverett":7722,"ĠTodd":7723,"ĠJaneiro":7724,"enhagen":7725,"Ġinspired":7726,"ĠHarvard":7727,"Ġromantic":7728,"Ġachieved":7729,"Ġimplemented":7730,"Ġhamlet":7731,"Ġgeometry":7732,"ĠGuadal":7733,"ĠSuperstars":7734,"ĠOrleans":7735,"atchewan":7736,"ĠSaskatchewan":7737,"Ġsle":7738,"rec":7739,"Ġcars":7740,"Ġcogn":7741,"ĠSign":7742,"Ġpiec":7743,"Ġmir":7744,"ĠBeth":7745,"Ġtowards":7746,"ĠNel":7747,"Ġones":7748,"ige":7749,"ĠInstead":7750,"oded":7751,"avior":7752,"Ġcompact":7753,"Ġcontain":7754,"Ġscalar":7755,"anced":7756,"Ġsingular":7757,"aired":7758,"Ġoperators":7759,"Ġentitled":7760,"Ġenough":7761,"Ġprocessing":7762,"Ġbehavior":7763,"ĠEducation":7764,"ĠMuhammad":7765,"Ġpieces":7766,"EFA":7767,"castle":7768,"rer":7769,"sbury":7770,"zon":7771,"ÄŁ":7772,"ÅĻ":7773,"Ġtouch":7774,"Ġtherm":7775,"edia":7776,"Ġinner":7777,"Ġwave":7778,"Ġwrestler":7779,"arro":7780,"Ġbound":7781,"ĠSÃ©":7782,"ĠCF":7783,"ĠCer":7784,"rovers":7785,"ĠMust":7786,"Ġmm":7787,"ĠBiddle":7788,"ingly":7789,"ĠRush":7790,"ĠRacing":7791,"ĠPos":7792,"ĠPied":7793,"ĠHab":7794,"ĠHob":7795,"ĠFord":7796,"chant":7797,"ĠWool":7798,"igion":7799,"iding":7800,"acuse":7801,"otyp":7802,"ĠKle":7803,"ĠKeral":7804,"ĠKolk":7805,"Ġgive":7806,"aging":7807,"Ġasks":7808,"Ġstopped":7809,"Ġalone":7810,"ĠNewcastle":7811,"ĠMarion":7812,"Ġroles":7813,"ĠShine":7814,"weet":7815,"Ġcontained":7816,"Ġcontrovers":7817,"anni":7818,"icker":7819,"inski":7820,"ĠQi":7821,"Ġ101":7822,"Ġ1911":7823,"roscop":7824,"ĠAnglic":7825,"ĠMalik":7826,"actical":7827,"Ġ1863":7828,"Ġ1867":7829,"ĠBelle":7830,"Ġaccused":7831,"ausen":7832,"Ġfeed":7833,"ĠReid":7834,"Ġestablish":7835,"ĠMilitary":7836,"Ġarchae":7837,"ĠMontana":7838,"Ġofficials":7839,"ĠHammer":7840,"Ġactivated":7841,"Ġrevived":7842,"ĠCasino":7843,"ĠReservoir":7844,"Ġchemist":7845,"ĠCornwall":7846,"Ġletters":7847,"ĠRevolution":7848,"Ġfunds":7849,"Ġsculptor":7850,"Ġdiscussed":7851,"Ġholds":7852,"Ġbrewery":7853,"ĠElectric":7854,"Ġderived":7855,"ĠLibya":7856,"ĠGonzalo":7857,"ĠOttawa":7858,"ĠFulton":7859,"riller":7860,"ĠGibson":7861,"ĠChampions":7862,"Donald":7863,"ĠCavalry":7864,"ĠRobbins":7865,"ĠSyracuse":7866,"ĠKerala":7867,"ĠKolkata":7868,"ses":7869,"Ġbay":7870,"Ġcaught":7871,"ĠSaf":7872,"Ġla":7873,"Ġrebu":7874,"Ġnom":7875,"Ġ1900":7876,"Ġbeaut":7877,"Ġregime":7878,"Ġamp":7879,"Ġrenowned":7880,"ĠSoft":7881,"Ġfleet":7882,"Ġlosing":7883,"Ġhours":7884,"Ġdifficult":7885,"chen":7886,"hu":7887,"hum":7888,"iot":7889,"nik":7890,"Ã«":7891,"onne":7892,"onetic":7893,"andin":7894,"Ġwore":7895,"enic":7896,"Ġcust":7897,"ĠCB":7898,"room":7899,"Ġpump":7900,"ĠBurg":7901,"Ġhyp":7902,"ĠRab":7903,"ĠRup":7904,"ĠRah":7905,"ĠPel":7906,"ĠHag":7907,"ĠHoff":7908,"ĠLet":7909,"ĠLiber":7910,"ĠDy":7911,"ĠDors":7912,"Ġrein":7913,"Ġrear":7914,"adas":7915,"ĠNation":7916,"ĠGol":7917,"ĠFr":7918,"ĠKis":7919,"ĠKane":7920,"estant":7921,"ĠStone":7922,"ranean":7923,"isha":7924,"onder":7925,"Ġcharter":7926,"Ġcharge":7927,"ĠMare":7928,"ĠArcher":7929,"ĠArjun":7930,"sea":7931,"ĠIndust":7932,"ĠShow":7933,"Ġjob":7934,"Ġ52":7935,"obu":7936,"issance":7937,"Ġwrite":7938,"ĠClara":7939,"ajara":7940,"Ġ150":7941,"Ġjoints":7942,"ĠTelevision":7943,"Ġ1893":7944,"yde":7945,"uits":7946,"ĠMora":7947,"Ġ1874":7948,"ĠMead":7949,"ĠQuin":7950,"Ġcorre":7951,"Ġrunning":7952,"ĠDunferm":7953,"ĠRocky":7954,"ĠPeterson":7955,"Ġvolume":7956,"Ġfactory":7957,"Ġgeologist":7958,"ĠSunset":7959,"Ġbanks":7960,"ĠArabia":7961,"ĠTaipe":7962,"Ġencour":7963,"ĠBrigh":7964,"Ġwithdrew":7965,"ĠBjÃ¶rn":7966,"ĠPhillip":7967,"ĠJoshua":7968,"ĠHistor":7969,"ĠGloucestershire":7970,"ĠRafael":7971,"Ġaspects":7972,"Ġcylind":7973,"ĠZurich":7974,"ĠInternet":7975,"Ġvariables":7976,"ĠGuadalajara":7977,"ĠDunfermline":7978,"ĠTaipei":7979,"pir":7980,"water":7981,"rees":7982,"Ġcanton":7983,"ĠBisc":7984,"Ġdone":7985,"ĠRuth":7986,"ĠLag":7987,"ĠNext":7988,"ĠGirl":7989,"acon":7990,"ocr":7991,"ĠUd":7992,"Ġsector":7993,"Ġshore":7994,"Ġcommittee":7995,"Ġimpl":7996,"ĠTehsil":7997,"Ġpeace":7998,"Ġlanded":7999},"merges":[["h","e"],["Ġ","t"],["a","n"],["i","n"],["e","r"],["Ġt","he"],["o","n"],["Ġ",","],["Ġ","."],["Ġ","a"],["e","d"],["o","r"],["i","s"],["an","d"],["Ġ","in"],["Ġ","w"],["a","r"],["Ġ","o"],["e","n"],["Ġ","s"],["a","l"],["a","t"],["a","s"],["r","e"],["Ġ","and"],["Ġo","f"],["i","t"],["Ġ","b"],["e","s"],["Ġ","f"],["i","c"],["Ġ","c"],["Ġ","S"],["Ġ","T"],["Ġ","C"],["r","o"],["Ġ","A"],["Ġ","p"],["Ġ","1"],["i","l"],["Ġ","M"],["o","u"],["Ġ","m"],["i","on"],["Ġ","B"],["l","e"],["Ġt","o"],["Ġ","is"],["Ġ","d"],["Ġw","as"],["a","m"],["Ġ","I"],["in","g"],["en","t"],["e","l"],["Ġ","h"],["Ġ","R"],["Ġ","P"],["s","t"],["Ġ","H"],["ĠT","he"],["o","l"],["o","m"],["Ġ","L"],["Ġ","l"],["Ġ","D"],["r","i"],["e","t"],["Ġ","J"],["Ġ","re"],["Ġ","2"],["c","t"],["a","d"],["Ġ","N"],["Ġb","y"],["Ġ","n"],["Ġ","G"],["Ġ1","9"],["u","r"],["t","h"],["Ġ","F"],["i","v"],["u","n"],["i","r"],["c","h"],["Ġ","'"],["Ġ","W"],["t","er"],["Ġ","on"],["u","s"],["a","y"],["Ġ","E"],["Ġf","or"],["o","w"],["it","h"],["l","y"],["e","m"],["he","r"],["i","a"],["is","t"],["at","ion"],["i","g"],["ĠI","n"],["i","d"],["Ġ2","0"],["Ġ","e"],["a","c"],["Ġ","("],["Ġ",")"],["i","m"],["o","t"],["Ġw","ith"],["u","t"],["Ġ","K"],["e","c"],["er","s"],["Ġ","g"],["a","g"],["Ġa","s"],["`","`"],["Ġ","``"],["Ġt","h"],["Ġ'","'"],["Ġ","O"],["u","l"],["ou","n"],["r","a"],["ro","m"],["o","s"],["Ġs","t"],["c","e"],["Ġ","-"],["b","er"],["o","v"],["u","m"],["o","c"],["i","an"],["Ġa","l"],["il","l"],["e","w"],["o","d"],["at","ed"],["ar","y"],["Ġf","rom"],["a","in"],["es","t"],["Ġw","h"],["ĠS","t"],["Ġ","v"],["ar","t"],["al","l"],["Ġp","ro"],["Ġa","t"],["o","p"],["it","y"],["Ġ","V"],["a","v"],["ĠC","h"],["i","p"],["re","s"],["Ġb","e"],["or","n"],["or","t"],["Ġ","U"],["Ġh","is"],["Ġa","re"],["Ġc","on"],["Ġc","om"],["Ġ","he"],["Ġ","an"],["i","f"],["u","d"],["at","e"],["Ġ20","1"],["Ġ1","8"],["u","g"],["e","v"],["a","p"],["a","b"],["r","ic"],["ĠH","e"],["u","b"],["r","an"],["i","es"],["a","k"],["as","t"],["ar","d"],["ĠI","t"],["e","p"],["or","d"],["ic","h"],["l","and"],["is","h"],["e","ar"],["an","t"],["u","p"],["Ġ20","0"],["g","e"],["Ġp","l"],["on","g"],["u","e"],["u","c"],["in","e"],["el","l"],["iv","e"],["m","er"],["er","e"],["Ġs","e"],["oun","t"],["u","st"],["Ġ","or"],["ĠA","n"],["on","d"],["en","d"],["es","s"],["ou","r"],["ir","st"],["Ġ-","-"],["Ġth","at"],["Ġ","it"],["ig","h"],["i","al"],["ic","al"],["Ġw","ere"],["s","o"],["am","e"],["s","h"],["Ġc","h"],["Ġ","un"],["Ġf","irst"],["or","e"],["ow","n"],["m","an"],["Ġd","e"],["t","her"],["Ġ","r"],["i","e"],["e","y"],["Ġb","orn"],["ĠA","l"],["or","k"],["Ġal","so"],["q","u"],["em","ber"],["ou","s"],["ĠN","ew"],["e","ct"],["o","g"],["Ġ","Y"],["r","it"],["Ġs","p"],["Ġ","3"],["ĠM","ar"],["Ġh","as"],["Ġcom","p"],["v","er"],["ac","k"],["an","g"],["i","re"],["o","st"],["l","d"],["t","on"],["o","k"],["m","ent"],["Ġ","6"],["ĠT","h"],["Ġ","le"],["Ġ","k"],["or","th"],["iv","er"],["Ġe","x"],["r","y"],["Ġl","oc"],["ĠU","n"],["Ġm","ar"],["ou","th"],["Ġ",":"],["as","s"],["ag","e"],["he","n"],["ĠR","iver"],["o","h"],["Ġpl","ay"],["ter","n"],["ug","h"],["o","ol"],["at","er"],["oun","d"],["i","ed"],["Ġ","y"],["he","d"],["ĠL","e"],["Ġp","art"],["c","l"],["p","p"],["ct","ion"],["ol","l"],["Ġwh","ich"],["w","o"],["t","e"],["ĠA","r"],["ric","t"],["Ġt","e"],["re","e"],["ation","al"],["i","z"],["s","on"],["ri","b"],["as","on"],["Ġre","p"],["f","ter"],["ĠR","o"],["ist","rict"],["p","er"],["Ġs","er"],["Ġs","h"],["in","al"],["ri","ed"],["Ġ","ro"],["ub","l"],["ount","y"],["am","p"],["Ġa","r"],["Ġs","ec"],["er","n"],["Ġwh","o"],["it","ed"],["w","n"],["a","h"],["ch","ool"],["ĠJ","oh"],["f","f"],["it","ion"],["Ġ","us"],["ig","n"],["Ġb","ut"],["r","al"],["u","re"],["g","h"],["Ġc","l"],["r","en"],["er","al"],["t","en"],["un","d"],["ĠO","n"],["Ġh","ad"],["ar","k"],["ic","e"],["ĠC","ounty"],["s","e"],["r","u"],["il","y"],["Ġloc","ated"],["t","s"],["Ġ19","9"],["Ġse","ason"],["i","k"],["i","b"],["ĠE","n"],["Ġ","4"],["Ġsec","ond"],["ro","p"],["i","o"],["ĠJoh","n"],["a","ch"],["Ġa","g"],["d","er"],["res","s"],["ĠS","p"],["Ġ19","8"],["id","e"],["Ġ19","7"],["Ġf","am"],["e","b"],["ĠIn","d"],["sh","ip"],["a","w"],["Ġpro","d"],["cl","ud"],["il","d"],["Ġa","pp"],["in","ce"],["ar","l"],["ĠS","h"],["e","x"],["Ġt","wo"],["av","e"],["p","h"],["o","in"],["as","ed"],["Ġs","on"],["t","ed"],["om","e"],["ol","d"],["mer","ic"],["r","ad"],["Ġ","Z"],["Ġ19","6"],["Ġmar","ried"],["Ġin","clud"],["p","ort"],["is","hed"],["Ġm","ov"],["w","e"],["an","y"],["Ġn","ew"],["ac","e"],["Ġ","j"],["Ġe","le"],["rib","ut"],["il","m"],["il","e"],["or","m"],["ĠA","meric"],["Ġa","d"],["at","h"],["it","e"],["om","an"],["Ġre","c"],["Ġcon","t"],["en","s"],["Ġ1","7"],["Ġfor","m"],["Ġ","5"],["i","el"],["t","o"],["at","es"],["b","all"],["i","am"],["ĠA","s"],["w","ay"],["ct","or"],["Ġon","e"],["ent","s"],["Ġa","fter"],["o","b"],["Ġf","ound"],["en","n"],["Ġb","ec"],["le","y"],["Ġre","g"],["ct","ed"],["Ġy","ear"],["is","s"],["Ġp","ubl"],["ĠF","ran"],["Ġ","her"],["a","il"],["Ġw","rit"],["Ġn","ot"],["Ġ","7"],["ĠS","c"],["Ġde","f"],["o","ot"],["Ġb","ro"],["Ġre","s"],["in","a"],["ĠC","ol"],["Ġd","istrict"],["f","er"],["an","s"],["ar","a"],["ou","t"],["e","g"],["ĠY","ork"],["Ġfam","ily"],["uc","ed"],["an","n"],["Ġd","ied"],["ur","n"],["at","her"],["ĠJ","an"],["ation","s"],["in","d"],["Ġa","b"],["ĠA","ust"],["Ġb","u"],["en","ce"],["ĠEn","g"],["a","ugh"],["ĠR","oman"],["Ġcom","m"],["Ġm","us"],["Ġd","es"],["Ġf","ilm"],["Ġag","ain"],["Ġit","s"],["ic","k"],["ĠS","he"],["ion","al"],["Ġplay","ed"],["Ġc","an"],["0","0"],["ĠE","l"],["Ġk","n"],["he","re"],["u","al"],["ĠN","orth"],["ĠW","ill"],["Ġte","am"],["ar","e"],["Ġw","on"],["or","y"],["ĠC","om"],["Ġb","et"],["at","ive"],["igh","t"],["Ġl","ater"],["oc","k"],["p","t"],["Ġw","ork"],["iv","ers"],["res","ent"],["ĠS","outh"],["a","i"],["en","c"],["c","c"],["Ġo","ther"],["Ġsp","ec"],["Ġp","er"],["Ġthe","n"],["Ġ19","4"],["Ġpro","v"],["ur","ing"],["el","y"],["Ġd","ire"],["Ġh","ave"],["Ġb","o"],["ĠI","s"],["oot","ball"],["in","s"],["we","en"],["on","t"],["Ġc","ent"],["Ġs","chool"],["ul","t"],["ĠE","d"],["ĠC","ity"],["Ġ","im"],["im","e"],["oll","ow"],["f","t"],["am","es"],["g","an"],["ak","e"],["Ġs","c"],["v","ed"],["Ġ","ri"],["an","c"],["ĠUn","ited"],["Ġst","ud"],["ĠTh","is"],["Ġt","ribut"],["Ġ19","5"],["ĠG","e"],["ĠP","h"],["ber","t"],["Ġre","t"],["i","er"],["ĠC","l"],["ag","ue"],["ĠG","er"],["as","h"],["Ġbet","ween"],["o","od"],["r","is"],["Ġus","ed"],["a","z"],["Ġ1","6"],["re","w"],["Ġw","hen"],["ion","s"],["et","t"],["ou","gh"],["Ġof","f"],["Ġtribut","ary"],["ĠP","ro"],["Ġn","orth"],["o","y"],["Ġw","here"],["augh","ter"],["i","x"],["ĠT","own"],["Ġmov","ed"],["Ġ19","3"],["ran","s"],["ĠM","ay"],["iv","ed"],["em","b"],["r","ed"],["ĠJ","u"],["Ġs","outh"],["Ġfor","mer"],["Ġal","l"],["et","h"],["Ġ","Q"],["Ġkn","own"],["ĠC","an"],["at","t"],["n","e"],["ĠWill","iam"],["ĠC","on"],["ĠB","ar"],["ĠAmeric","an"],["Ġf","ollow"],["or","s"],["ri","d"],["Ġre","le"],["Ġv","ill"],["Ġcon","s"],["ĠC","al"],["Ġal","b"],["oun","c"],["is","c"],["Ġ","%"],["Ã","©"],["iel","d"],["r","on"],["et","er"],["ep","t"],["es","e"],["Ġ19","2"],["Ġbe","en"],["Ġun","der"],["a","j"],["Ġthe","ir"],["Ġwrit","ten"],["ĠGer","man"],["Ġagain","st"],["Ġbec","ame"],["il","le"],["Ġd","aughter"],["ĠB","l"],["er","ed"],["us","s"],["Ġalb","um"],["ĠF","or"],["ĠRoman","ia"],["w","ard"],["Ġth","ree"],["a","u"],["Ġpubl","ished"],["ĠAust","ral"],["l","es"],["Ġprod","uced"],["Ġth","is"],["Ġm","an"],["ov","ern"],["ol","og"],["ur","y"],["Ġp","re"],["a","e"],["ic","ip"],["ĠC","ar"],["ĠJ","un"],["e","e"],["ing","s"],["Ġon","ly"],["Ġ","9"],["ĠA","ug"],["Ġser","ies"],["ot","her"],["ul","a"],["ot","t"],["al","e"],["ev","er"],["Ġmus","ic"],["u","ary"],["is","ter"],["ro","up"],["ic","t"],["Ġin","d"],["Ġ","up"],["ĠA","t"],["Ġn","ear"],["ou","ld"],["ĠMar","ch"],["f","ore"],["Ġa","ct"],["ĠAug","ust"],["r","am"],["Ġo","ver"],["ĠGe","or"],["r","ent"],["Ġf","inal"],["ĠJan","uary"],["ĠA","p"],["Ġc","ur"],["Ġrele","ased"],["ul","ar"],["Ġm","e"],["p","en"],["ab","le"],["Ġt","rans"],["ĠS","w"],["Ġ1","0"],["Ġf","our"],["i","ous"],["Ġat","t"],["h","am"],["Ġ","8"],["ĠS","ept"],["ĠA","d"],["ĠN","ov"],["ĠA","m"],["id","ent"],["Ġ19","1"],["ĠAn","d"],["ĠG","re"],["ĠSept","ember"],["ivers","ity"],["ĠO","ct"],["Ġf","l"],["Ġvill","age"],["ĠD","ec"],["oc","i"],["if","e"],["ad","a"],["Ġs","ing"],["Ġc","o"],["Ġwh","ile"],["ĠH","ar"],["ev","el"],["Ġdef","e"],["Ġt","r"],["Ġch","ild"],["Ġb","l"],["Ġg","en"],["ĠJu","ly"],["Ġyear","s"],["o","ber"],["ĠLe","ague"],["l","in"],["Ġ","ed"],["Ġc","ity"],["u","ch"],["u","k"],["Ġrep","l"],["ĠOct","ober"],["Ġf","ather"],["ir","d"],["y","n"],["Ġm","ost"],["ĠM","c"],["Ġh","im"],["Ġm","od"],["ĠB","ro"],["ĠG","u"],["es","tern"],["f","orm"],["Ġs","m"],["ĠS","chool"],["ĠE","u"],["r","il"],["ĠB","rit"],["in","n"],["an","k"],["Ġp","ol"],["Ġs","ub"],["Ġre","l"],["c","he"],["il","t"],["Ġs","he"],["ĠDec","ember"],["a","ir"],["ri","m"],["evel","op"],["in","c"],["Ġ1","5"],["Ġm","ain"],["Ġbro","ther"],["ĠP","ark"],["Ġl","ar"],["Ġrec","ord"],["ac","ed"],["on","e"],["Ġs","up"],["Ġt","ime"],["ĠC","o"],["ĠN","ational"],["ĠD","istrict"],["Ġ","ra"],["ous","e"],["Ġo","pen"],["ĠA","ir"],["ĠB","e"],["ign","ed"],["ĠP","ar"],["r","ist"],["Ġc","re"],["Ġn","ame"],["Ġf","ootball"],["Ġret","urn"],["e","an"],["ĠAp","ril"],["ic","s"],["Ġbe","fore"],["Ġs","ev"],["ro","s"],["os","e"],["on","s"],["ĠTown","ship"],["Ġd","uring"],["Ġe","v"],["is","ion"],["ĠW","h"],["Ġ201","1"],["Ġin","to"],["Ġp","h"],["ĠIt","al"],["Ġspec","ies"],["ing","ton"],["Ġd","evelop"],["Ġsm","all"],["Ġthe","y"],["ĠSt","ate"],["ĠNov","ember"],["Ġex","p"],["ĠJun","e"],["ĠEu","rop"],["y","s"],["ĠAn","g"],["Ġor","ig"],["Ġm","ore"],["t","il"],["Ġt","ra"],["er","y"],["l","or"],["Ġs","ong"],["as","e"],["Ġ","qu"],["os","ed"],["en","g"],["Ġ",";"],["Ġst","ation"],["ap","an"],["Ġc","ol"],["al","ity"],["er","v"],["ĠD","av"],["os","s"],["ĠAs","s"],["Ã","¡"],["Ġcur","rent"],["l","er"],["ĠIs","land"],["ĠD","an"],["ur","al"],["k","et"],["o","th"],["ad","e"],["ĠF","eb"],["ru","ary"],["ĠFeb","ruary"],["f","ord"],["or","ld"],["Ġthe","re"],["ro","ugh"],["ĠUn","iversity"],["if","ic"],["ist","s"],["a","ul"],["ĠPh","il"],["er","m"],["ĠM","ich"],["Ġre","m"],["y","st"],["am","ed"],["ĠJ","apan"],["Ġn","ort"],["b","y"],["Ġin","ter"],["ĠEng","land"],["j","ect"],["ĠW","al"],["p","or"],["ĠH","is"],["Ġcomp","le"],["un","icip"],["all","ed"],["ĠD","e"],["ur","g"],["ĠSt","ates"],["y","p"],["q","ue"],["Ġoff","ic"],["Ġ1","2"],["sh","ire"],["Ġrep","resent"],["el","s"],["c","ess"],["r","and"],["Ġst","ate"],["Ġ1","1"],["ĠA","fter"],["if","orn"],["ĠCal","iforn"],["um","b"],["ĠCaliforn","ia"],["Ġle","ad"],["er","t"],["ond","on"],["ĠS","an"],["Ġ19","0"],["Ġare","a"],["ĠTh","om"],["ĠAustral","ia"],["er","g"],["Ġar","t"],["ĠH","igh"],["Ġbu","ilt"],["Ġa","c"],["v","ille"],["Ġ201","5"],["ĠL","ondon"],["ay","s"],["Ġj","oin"],["Ġto","wn"],["Ġp","ar"],["Ġdefe","ated"],["ers","on"],["ĠInd","ian"],["um","ber"],["Ġ18","8"],["Ġser","v"],["k","s"],["f","ess"],["ĠM","al"],["Ġ1","4"],["Ġth","ird"],["Ġg","roup"],["od","e"],["on","y"],["l","ed"],["ro","und"],["ĠCh","arl"],["ĠBrit","ish"],["Ġab","out"],["tern","ational"],["Ġn","ow"],["Ġun","til"],["ĠW","ar"],["Ġfound","ed"],["Ġs","o"],["ang","u"],["Ġinclud","ing"],["Ġg","overn"],["ĠRo","bert"],["Ġan","n"],["ĠA","f"],["Ġ200","8"],["m","y"],["Ġri","ver"],["Ġo","per"],["ow","ever"],["amp","ion"],["a","ct"],["Ġ","end"],["is","e"],["Ġth","rough"],["Ġapp","ear"],["ĠM","ary"],["ĠK","ing"],["ĠW","est"],["Ġprov","ince"],["iz","ed"],["ĠC","ent"],["ic","o"],["Ġad","d"],["Ġreg","ion"],["an","a"],["Ġ201","2"],["ĠR","uss"],["y","l"],["em","ent"],["Ġorig","inal"],["ar","ly"],["Ġh","ist"],["Ġ18","6"],["Ġw","est"],["et","s"],["Ġdes","c"],["an","ce"],["Ġt","rad"],["ĠB","ra"],["le","ge"],["ĠK","h"],["it","al"],["ĠU","S"],["Ġle","ft"],["Ġc","alled"],["her","n"],["n","er"],["ow","er"],["ik","e"],["Ġl","angu"],["ord","er"],["Ġchild","ren"],["Ġrepl","aced"],["a","x"],["Ġm","on"],["Ġe","ast"],["Ġloc","al"],["is","m"],["Ġo","ut"],["ow","s"],["p","le"],["Ġo","wn"],["Ġas","s"],["as","tern"],["Ġ201","0"],["Ġs","old"],["ĠGeor","ge"],["ĠJ","ames"],["n","ey"],["Ġth","an"],["ĠInd","ia"],["Ġin","v"],["Ġc","ap"],["ĠB","el"],["a","f"],["ou","ther"],["outher","n"],["it","ies"],["ĠCom","m"],["Ġb","and"],["Ġh","igh"],["ĠAl","l"],["l","ish"],["Ġw","ould"],["r","at"],["al","s"],["ĠT","e"],["Ġ201","4"],["ĠA","le"],["Ġm","unicip"],["ain","s"],["Ġ18","9"],["ĠC","or"],["Ġs","ome"],["st","on"],["ree","k"],["ĠThe","re"],["ĠThom","as"],["y","d"],["u","it"],["ĠE","m"],["Ġdire","cted"],["ri","v"],["yst","em"],["Ġw","ife"],["ĠCan","ada"],["ĠDav","id"],["st","it"],["ĠG","en"],["c","es"],["Ġ","ent"],["Ġm","ed"],["Ġe","p"],["ĠCh","rist"],["Ġv","ers"],["v","el"],["Ġa","cc"],["f","ul"],["he","m"],["Ġl","ong"],["Ġs","ame"],["ĠV","al"],["Ġs","ur"],["Ġ1","3"],["ros","s"],["u","th"],["ĠR","ich"],["ul","l"],["Ġ18","5"],["Ġin","t"],["ĠM","an"],["Ġm","any"],["ip","p"],["Ġa","ir"],["Ġcomm","un"],["ĠM","in"],["a","us"],["i","ent"],["ĠS","m"],["Ġm","il"],["res","ident"],["ra","ph"],["e","al"],["i","um"],["ĠM","us"],["ri","end"],["id","ae"],["Ġ201","3"],["uc","k"],["ĠM","art"],["Ġn","ational"],["iv","es"],["Ġd","if"],["st","er"],["ĠP","ol"],["s","p"],["ĠA","b"],["re","et"],["et","her"],["a","el"],["ĠThe","y"],["ĠP","aul"],["g","er"],["in","ed"],["Ġm","et"],["ren","ch"],["ĠEng","lish"],["ĠG","l"],["ĠL","ake"],["Ġre","ce"],["en","e"],["Ġp","op"],["ĠF","rench"],["ĠAf","ric"],["Ġfollow","ing"],["ar","s"],["re","t"],["Ġs","uc"],["Ġe","arly"],["Ġm","ember"],["ĠP","l"],["he","l"],["ĠE","x"],["f","ield"],["Ġs","im"],["ov","e"],["ĠM","or"],["ĠR","ep"],["Ġn","umber"],["ĠS","e"],["n","ect"],["p","l"],["op","le"],["Ġ201","6"],["ĠAng","el"],["b","le"],["ĠH","en"],["u","res"],["ĠM","ex"],["ĠP","art"],["ĠN","or"],["Ġn","amed"],["at","s"],["Ġto","ok"],["id","d"],["Ġthe","m"],["Ġd","ep"],["Ġv","ar"],["Ġm","in"],["at","or"],["ĠP","eter"],["Ġprod","u"],["ĠL","ou"],["ut","e"],["ĠE","ast"],["Ġ200","9"],["Ġcent","ury"],["in","es"],["Ġd","ec"],["end","ed"],["i","us"],["c","k"],["Ġpol","it"],["ĠP","ort"],["b","or"],["Ġs","ett"],["Ġa","m"],["ĠCol","lege"],["r","um"],["Ġ","en"],["Ġsev","eral"],["ĠB","o"],["ial","ly"],["n","a"],["ain","ed"],["ical","ly"],["Ġ3","0"],["un","g"],["Ġopen","ed"],["om","et"],["at","a"],["Ġp","e"],["st","e"],["Ġman","ag"],["c","o"],["ur","ch"],["rid","ge"],["ĠM","ount"],["Ġpro","fess"],["en","a"],["Ġ200","7"],["ampion","ship"],["ĠM","ad"],["ir","ed"],["Ġm","emb"],["ag","o"],["Ġl","im"],["ĠO","r"],["am","b"],["Ġdif","fer"],["ĠM","on"],["ĠGerman","y"],["and","er"],["ounc","il"],["ĠEurop","e"],["Ġann","ounc"],["ĠP","er"],["a","id"],["Ġs","uch"],["Ġs","ystem"],["Ġm","ade"],["Ġ200","6"],["Ġt","it"],["Ġ18","7"],["Ġw","ell"],["Ġb","ased"],["y","m"],["Ġd","ist"],["Ġg","re"],["Ġlar","ge"],["our","n"],["ction","s"],["Ġw","e"],["an","e"],["Ġs","outhern"],["Ġd","isc"],["om","b"],["Ġm","other"],["k","e"],["m","in"],["ord","ing"],["Ġbe","gan"],["Ġpl","ace"],["ĠL","a"],["k","a"],["ĠT","ex"],["u","el"],["Ġw","ill"],["ro","l"],["ĠB","ay"],["Ġra","il"],["it","t"],["im","es"],["ĠRo","ad"],["Ġal","ong"],["wo","od"],["Ġreturn","ed"],["Ġ","X"],["ubl","ic"],["ĠA","g"],["le","t"],["ĠW","hen"],["Ġsh","ort"],["Ġf","e"],["ĠH","ill"],["ter","s"],["Ġin","f"],["Ġr","ed"],["Ġrecord","ed"],["ĠB","r"],["ĠCharl","es"],["ĠH","ol"],["iss","ion"],["Ġmunicip","ality"],["Ġl","and"],["Ġbo","ok"],["ĠS","ch"],["ĠAmeric","a"],["oci","ation"],["at","ure"],["ĠH","er"],["y","a"],["ro","w"],["Ġmemb","ers"],["ĠP","r"],["l","u"],["ĠB","as"],["ĠSt","reet"],["Ġgen","eral"],["ĠRo","y"],["Ġcre","ated"],["Ġs","ix"],["Ġl","ine"],["Ġcomp","any"],["u","ated"],["an","ia"],["ĠR","eg"],["ĠP","at"],["Ġf","riend"],["ag","es"],["am","a"],["ĠR","ail"],["Ġ2","9"],["Ġnort","hern"],["Ġo","ld"],["Ġgovern","ment"],["Ġs","n"],["Ġsup","port"],["i","et"],["Ġs","ince"],["ĠL","os"],["r","ated"],["Ã","Ń"],["Ġp","ain"],["Ġrepresent","ed"],["he","s"],["es","h"],["Ġrece","ived"],["he","ast"],["ab","eth"],["ro","te"],["Ġp","resent"],["Ġ201","7"],["ĠRich","ard"],["ĠSw","ed"],["Ġin","c"],["ĠAle","x"],["Ġst","art"],["Ġannounc","ed"],["ian","s"],["ĠAngel","es"],["k","i"],["ĠMich","ael"],["Ġdesc","rib"],["ic","a"],["Ġp","rom"],["m","ed"],["ĠR","e"],["ri","g"],["r","ay"],["ĠItal","y"],["Ġcl","ass"],["Ġn","e"],["Ġser","ved"],["Ġ","est"],["on","es"],["Ġ2","1"],["i","or"],["ro","d"],["Ġlangu","age"],["Ġl","ist"],["ar","n"],["Ġwh","ite"],["Ġform","ula"],["ĠB","er"],["Ġdiffer","ent"],["Ġde","ath"],["Ã","¼"],["Ġv","is"],["Ġjoin","ed"],["Ġ","0"],["Ġw","rote"],["Ġep","is"],["ĠT","ur"],["ĠCom","p"],["Ġschool","s"],["ĠS","ant"],["oin","ted"],["Ġy","oun"],["ĠFran","ce"],["ra","ct"],["i","ev"],["ar","m"],["Ġor","gan"],["Ġsuc","cess"],["ĠTex","as"],["ĠW","orld"],["Ġf","un"],["Ġm","at"],["ch","an"],["v","i"],["ĠB","orn"],["ĠJ","ack"],["Ġg","ame"],["olog","y"],["Ġdevelop","ed"],["ĠC","reek"],["ĠJ","os"],["ĠC","ouncil"],["ĠF","ootball"],["Ġbo","th"],["g","in"],["in","o"],["el","f"],["ĠPart","y"],["al","ly"],["ĠM","il"],["ie","f"],["Ġinclud","e"],["z","il"],["Ġd","o"],["Ġd","iv"],["Ġcont","in"],["ĠFran","c"],["ĠAfric","a"],["Ġpro","g"],["Ġbl","ack"],["o","x"],["at","ing"],["Ġt","yp"],["Ġc","ount"],["ment","s"],["Ġinclud","ed"],["Ä","ĥ"],["Ġl","ast"],["Ġd","is"],["ĠO","l"],["r","ing"],["Ġvers","ion"],["ĠM","el"],["Ġ200","5"],["le","v"],["Ġele","ct"],["Ġrail","way"],["ĠMex","ico"],["ĠM","e"],["ut","ion"],["Ġpe","ople"],["Ġhe","ld"],["ĠQ","ue"],["Ġtr","ue"],["ĠF","lor"],["Ġapp","ointed"],["Ġwork","ed"],["Ġt","w"],["Ġthe","se"],["ĠJ","o"],["ĠAss","ociation"],["ĠSc","ott"],["ĠS","l"],["al","d"],["ri","a"],["ĠBra","zil"],["Ġsing","le"],["ĠHen","ry"],["Ġf","in"],["ĠS","er"],["ib","le"],["aj","or"],["ep","end"],["og","raph"],["ff","ect"],["ĠEl","iz"],["ri","es"],["ĠSm","ith"],["ĠPro","v"],["Ġis","land"],["Ġhist","or"],["ĠR","ed"],["b","urg"],["Ġsn","ail"],["m","a"],["Ġ","em"],["ĠC","ap"],["enc","y"],["t","al"],["e","le"],["ab","l"],["Ġw","estern"],["Ġp","rim"],["Ġw","ater"],["Ã","¶"],["it","z"],["ĠT","om"],["ers","ey"],["g","ether"],["Ġto","gether"],["Ġprofess","ional"],["o","le"],["op","e"],["ara","ct"],["ce","pt"],["Ġch","aract"],["Ġl","ived"],["Ġcomp","osed"],["uth","or"],["Ġtit","le"],["ish","op"],["Ġpubl","ic"],["ĠEliz","abeth"],["Ġ","el"],["Ġ18","1"],["Ġs","ol"],["ur","b"],["Ġc","ame"],["Ġmod","ern"],["Ġb","as"],["v","e"],["Ġp","o"],["ition","s"],["ic","es"],["ĠCh","ina"],["if","ied"],["ur","ed"],["Ġb","el"],["d","om"],["ĠQ","u"],["ĠIn","ternational"],["w","est"],["Ġ","ran"],["us","k"],["Ġus","e"],["Ġc","or"],["i","ber"],["Ġo","b"],["Ġs","ister"],["Ġl","ost"],["id","ed"],["ĠCh","ic"],["Ġb","us"],["Ġcomple","ted"],["ĠSc","ot"],["Ġpre","v"],["Ġb","ack"],["ĠW","e"],["ant","s"],["Ġv","ery"],["ĠGen","eral"],["is","ed"],["g","ar"],["Ġse","a"],["Ġepis","ode"],["h","a"],["Ġr","un"],["Ġg","rew"],["Ġn","on"],["ĠS","im"],["ĠA","v"],["Ġh","ome"],["g","est"],["ĠFran","k"],["Ġ200","3"],["ĠM","ed"],["Ġro","und"],["Ġele","cted"],["ĠP","e"],["ĠF","rom"],["ĠS","am"],["b","our"],["ĠC","ong"],["Ġappear","ed"],["ual","ly"],["ĠEd","ward"],["t","a"],["on","a"],["ĠA","cc"],["ĠP","enn"],["on","om"],["Ġ2","8"],["Ġcurrent","ly"],["Ġg","rand"],["ĠM","ac"],["form","ed"],["ĠR","ec"],["Ġprog","ram"],["ĠChic","ago"],["Ġc","amp"],["ĠM","et"],["Ġar","ch"],["ĠM","a"],["it","s"],["ĠT","or"],["ric","k"],["ar","i"],["ĠB","h"],["Ġbu","ild"],["g","o"],["Ġof","ten"],["ĠD","iv"],["ĠCent","ral"],["s","c"],["id","a"],["ĠVal","ley"],["ĠRep","ublic"],["ĠS","al"],["Ġsh","ow"],["gh","t"],["Ġg","ast"],["Ġdescrib","ed"],["ĠJ","ersey"],["ĠRo","b"],["Ġcon","f"],["Ġcon","st"],["Ġc","are"],["ĠS","u"],["Ġplay","er"],["ord","s"],["ĠGeor","g"],["i","j"],["re","m"],["ĠP","al"],["ĠV","ir"],["iv","al"],["ĠD","uring"],["Ġn","ov"],["rop","od"],["Ġgast","ropod"],["r","d"],["ĠD","on"],["Ġre","st"],["v","ers"],["al","f"],["ĠI","l"],["ĠZ","eal"],["Ġt","em"],["it","ary"],["Ġm","oll"],["ĠD","un"],["ĠS","up"],["Ġbe","ing"],["Ġ2","5"],["ĠLou","is"],["ĠM","ass"],["Ġcon","nect"],["ĠAr","g"],["ĠS","ir"],["ĠT","r"],["Ġa","ctor"],["oin","t"],["ĠZeal","and"],["u","es"],["ĠW","ash"],["Ġcent","ral"],["ĠH","ouse"],["Ġ3","1"],["ĠCong","ress"],["th","ough"],["Ġex","t"],["ĠT","im"],["Ġto","tal"],["Ġg","uit"],["Ġ200","2"],["Ġf","ive"],["ĠI","r"],["Ġ2","3"],["id","es"],["ĠM","ont"],["Ġ2","6"],["Ġdire","ctor"],["Ġinf","lu"],["Ġre","f"],["Ġ18","4"],["ĠG","overn"],["ol","k"],["Ġn","o"],["ul","ation"],["Ġ2","4"],["ĠG","al"],["Ġro","le"],["Ġim","port"],["ĠS","en"],["Ġcl","ub"],["Ġt","erm"],["Ġs","it"],["Ġ2","7"],["ac","hed"],["ag","n"],["Ġl","ed"],["if","f"],["b","ury"],["ĠH","owever"],["om","in"],["l","ic"],["u","ed"],["Ġ","â"],["ition","al"],["Ġoffic","ial"],["Ġprev","ious"],["ĠB","ur"],["ĠItal","ian"],["t","ar"],["at","ely"],["ĠC","arl"],["Ġ2","2"],["ex","t"],["Ġc","ar"],["Ġh","owever"],["ĠR","ock"],["ep","h"],["al","a"],["Ġcomm","on"],["Ġtr","ack"],["as","ter"],["00","0"],["Ġfollow","ed"],["ĠRuss","ian"],["abl","ished"],["ĠP","et"],["Ġatt","ack"],["Ġm","ay"],["ĠE","v"],["ran","ch"],["ĠG","ar"],["ĠW","il"],["ĠM","er"],["l","ine"],["ri","an"],["ad","em"],["Ġe","qu"],["ĠDan","iel"],["ent","h"],["in","k"],["ov","er"],["Ġw","orld"],["as","es"],["ĠTur","k"],["Ġw","ent"],["Ġo","cc"],["ĠVir","gin"],["Ġs","igned"],["Ġcomp","et"],["y","le"],["us","h"],["Ġk","ill"],["ĠWh","ite"],["ĠJapan","ese"],["Ġcommun","ity"],["Ġguit","ar"],["Ġ18","3"],["Ġle","g"],["Ã","³"],["Ġs","aid"],["ĠL","u"],["Ġwith","in"],["Ġs","um"],["ĠAcc","ording"],["am","ent"],["Ġe","ffect"],["ĠV","ict"],["Ġhe","ad"],["ĠAr","m"],["Ġh","ouse"],["Ġe","astern"],["od","y"],["Ġr","ad"],["ent","ly"],["ĠJ","im"],["Ġmar","ine"],["op","s"],["Ġwork","s"],["op","h"],["Ġa","round"],["ĠS","ec"],["ĠH","am"],["an","ish"],["Ġare","as"],["ru","ct"],["re","g"],["Ġdes","ign"],["Ġint","rod"],["Ġ","Ã"],["iv","ely"],["arl","iam"],["Ġmoll","usk"],["o","is"],["idd","le"],["ĠF","orm"],["att","le"],["B","C"],["Ġa","ge"],["Ġp","erson"],["om","a"],["Ġhe","l"],["ĠAn","n"],["Ġr","en"],["ĠWash","ington"],["ell","s"],["ough","t"],["ar","ed"],["art","ment"],["Ġpro","t"],["ĠLe","g"],["ĠI","I"],["ĠAustral","ian"],["arliam","ent"],["at","i"],["ĠM","iss"],["ort","s"],["Ġest","ablished"],["ĠMart","in"],["s","ide"],["Ġp","os"],["Ġsing","er"],["z","e"],["ĠP","resident"],["ri","e"],["ĠSp","ain"],["Ġapp","ro"],["Ġt","our"],["ov","ered"],["w","ork"],["Ġ","_"],["ĠA","c"],["ap","p"],["Ġa","uthor"],["Ġoriginal","ly"],["ĠD","el"],["oc","ial"],["ĠCh","in"],["ĠCan","ad"],["t","ain"],["is","l"],["Ġl","aw"],["ap","er"],["ard","s"],["y","an"],["in","ess"],["Ġs","ound"],["ĠPar","is"],["Ġin","ternational"],["ĠAr","ch"],["ĠEurop","ean"],["d","u"],["ot","e"],["Ġstart","ed"],["ol","ic"],["ec","ut"],["ĠVict","or"],["ch","n"],["ĠW","estern"],["ĠRail","way"],["ĠD","r"],["i","que"],["Ġ200","0"],["Ġb","order"],["ĠM","o"],["ol","a"],["Ġ18","2"],["Ġ200","1"],["Ġâ","Ģ"],["ar","g"],["ĠJ","ew"],["Ġ200","4"],["Ġw","in"],["ĠCol","umb"],["p","ress"],["ĠS","yd"],["et","ic"],["Ġsim","il"],["ri","pt"],["Ġ199","9"],["Ġs","ide"],["il","ity"],["ĠSyd","ney"],["c","a"],["Ġph","ys"],["ĠG","roup"],["ell","ow"],["ĠWilliam","s"],["ĠBl","ack"],["l","o"],["Ġh","alf"],["Ġmon","th"],["ĠRoy","al"],["Ġcare","er"],["Ġw","ee"],["oc","rat"],["ep","ar"],["Ġdist","ribut"],["Ġfun","ction"],["Ġp","ass"],["ĠCh","ampionship"],["Ġcharact","er"],["ĠB","ost"],["av","y"],["Ġmil","es"],["d","en"],["ĠThe","se"],["ĠF","red"],["ĠAir","port"],["aus","e"],["ĠFlor","ida"],["ĠVirgin","ia"],["Ġst","r"],["Ġ197","0"],["Ġfour","th"],["min","ist"],["k","er"],["ĠS","ar"],["ĠSp","anish"],["ĠArg","ent"],["Ġh","um"],["ĠG","ra"],["ĠCh","ief"],["ĠCar","ol"],["Ġn","ext"],["c","ed"],["Ġst","ill"],["fer","red"],["Ġstud","ents"],["ĠComp","any"],["Ġprim","ary"],["h","i"],["Ġc","ult"],["Ġ","order"],["ĠS","o"],["ĠM","ur"],["ĠO","k"],["Ġcon","c"],["Ġper","formed"],["Ġe","ach"],["ĠBro","ok"],["ĠB","y"],["ĠB","en"],["Ġd","ay"],["ĠR","am"],["re","a"],["Ġb","i"],["ste","ad"],["ĠS","ing"],["ĠN","e"],["Ġact","iv"],["ĠBro","wn"],["Ġform","ed"],["Ġst","at"],["Ġact","ress"],["ĠWal","es"],["u","ri"],["Ġf","a"],["ĠM","att"],["ĠScot","land"],["ĠDiv","ision"],["Ġnov","el"],["Ġc","our"],["ĠJ","e"],["is","on"],["ing","ham"],["ent","ial"],["ĠJ","ul"],["Ġreg","ional"],["Ġco","ast"],["it","ect"],["n","d"],["Ġt","ak"],["Ġteam","s"],["ĠCor","por"],["l","l"],["Ġch","ang"],["Ġstud","ied"],["Ġcons","id"],["ĠCanad","ian"],["c","le"],["Ġp","ort"],["p","s"],["ol","it"],["Ġpar","ents"],["ĠBost","on"],["Ġv","ia"],["Ġdes","igned"],["Ġatt","ended"],["ĠAd","am"],["Ġbu","ried"],["ĠChin","ese"],["f","or"],["r","as"],["an","i"],["Ġc","ounty"],["ĠM","ah"],["che","s"],["Ġ","if"],["Ġs","epar"],["ber","g"],["Ġind","epend"],["ĠAlex","ander"],["and","a"],["ĠSt","e"],["ĠSt","ev"],["Ġpart","s"],["Ġbus","iness"],["ur","a"],["Ġe","c"],["ĠBel","g"],["it","or"],["ig","an"],["ĠForm","ula"],["t","y"],["Ġs","out"],["ad","y"],["Ġwrit","er"],["Ġlim","p"],["ĠCh","ris"],["Ġpart","icip"],["Ġsimil","ar"],["Ġs","ign"],["Ġg","l"],["Ġcol","le"],["ĠAn","ton"],["Ġro","ad"],["v","es"],["ar","ch"],["ĠKh","an"],["Ġpop","ular"],["B","A"],["em","ocrat"],["Ġcomp","os"],["ĠF","in"],["ĠPenn","s"],["et","y"],["ĠG","old"],["ĠF","l"],["ĠU","t"],["ans","as"],["Ġimport","ant"],["s","elf"],["ir","l"],["ĠD","ep"],["Ġ18","0"],["anc","he"],["Ġed","uc"],["yl","v"],["ĠCorpor","ation"],["i","os"],["ĠJ","ac"],["ĠGre","en"],["ĠJos","eph"],["ĠSt","ation"],["ac","es"],["omet","imes"],["a","un"],["Ġv","al"],["Ġ","ill"],["Ġs","ocial"],["Ġst","and"],["Ġan","other"],["Ġev","ent"],["ĠJew","ish"],["re","land"],["Ġ197","6"],["ens","us"],["ris","on"],["Ġgre","at"],["ĠB","al"],["Ġg","rad"],["ĠSt","ep"],["Ġre","v"],["un","n"],["ĠKing","dom"],["Ġarch","itect"],["Ġv","i"],["t","ic"],["w","in"],["Ġc","ross"],["ĠC","amp"],["Ġp","ost"],["qu","ired"],["olog","ical"],["ĠAt","l"],["ĠR","ou"],["ĠL","at"],["ĠW","ith"],["us","c"],["ra","b"],["Ġpro","ject"],["Ġtra","in"],["y","er"],["Ġin","it"],["Ġs","w"],["Ġc","od"],["Ġg","ames"],["Ġmanag","er"],["l","i"],["ĠC","le"],["enc","es"],["bour","ne"],["k","ins"],["ĠS","om"],["Ġp","oss"],["itt","le"],["ĠProv","ince"],["ed","eral"],["it","er"],["ĠW","ood"],["ast","le"],["Ġele","ction"],["or","ed"],["ra","ft"],["er","a"],["ĠB","u"],["ly","m"],["all","s"],["ket","ball"],["ĠT","al"],["Ġp","r"],["Ġm","ajor"],["ent","al"],["Ġad","minist"],["ĠUS","A"],["lev","ision"],["ĠStep","hen"],["Ġb","est"],["et","ts"],["un","t"],["Ġme","et"],["Ġsett","led"],["ylv","ania"],["Ġp","resident"],["il","ly"],["ĠB","ill"],["Ġh","ig"],["ĠUn","ion"],["ĠAnd","rew"],["Ġkill","ed"],["he","w"],["ĠO","t"],["Ġed","ition"],["e","um"],["ĠC","ro"],["us","etts"],["ach","usetts"],["ĠMass","achusetts"],["eth","od"],["a","im"],["ĠAl","b"],["i","ence"],["en","ue"],["ĠA","z"],["ĠI","reland"],["ĠR","ad"],["Ġact","ive"],["ĠMc","C"],["c","hed"],["z","o"],["Ġmil","itary"],["ĠAtl","ant"],["o","ok"],["ot","a"],["d","ay"],["ĠCh","urch"],["Ġspec","ial"],["ĠL","uc"],["Ġhist","ory"],["ĠSwed","en"],["ĠPenns","ylvania"],["s","y"],["ĠC","up"],["ĠB","ut"],["Ġres","p"],["er","ry"],["Ġm","erg"],["os","p"],["ĠAl","though"],["Ġdevelop","ment"],["ĠPhil","ipp"],["Ġsit","uated"],["ic","ian"],["Ġm","ount"],["ĠK","n"],["igh","ts"],["Ġpop","ulation"],["k","in"],["Ã","¤"],["Ġo","pp"],["Ġ196","8"],["Ġnort","heast"],["m","s"],["at","ural"],["Ġp","riv"],["Ġstud","io"],["ĠMin","ister"],["y","ric"],["iz","ation"],["isc","o"],["c","er"],["k","ed"],["o","ff"],["Ġl","ate"],["Ġs","ometimes"],["Ġl","ive"],["ĠJ","ean"],["og","n"],["Ġw","ar"],["Ġst","yle"],["ĠMar","k"],["ĠS","a"],["ĠMich","igan"],["Ġsur","v"],["i","od"],["re","st"],["ro","y"],["Ġd","est"],["Ġex","amp"],["ĠLe","e"],["Ġcap","ital"],["c","om"],["r","ation"],["it","ive"],["ĠD","es"],["Ġex","per"],["Ġmar","ket"],["ĠM","ill"],["ot","es"],["Ġnew","sp"],["Ġprodu","ction"],["ĠS","il"],["ell","a"],["Ġtrans","l"],["isl","ative"],["on","to"],["Ġpolit","ical"],["ĠMel","bourne"],["Ġintrod","uced"],["m","ond"],["ent","ion"],["Ġdire","ct"],["b","ur"],["it","a"],["ĠC","ath"],["Ġl","yric"],["Ġk","m"],["Ġprodu","ct"],["Ä","ĩ"],["ar","ian"],["Ġs","ent"],["Ġsecond","ary"],["u","a"],["Ġ","eng"],["it","te"],["Ġh","and"],["Ġwee","k"],["a","o"],["ĠS","um"],["le","ct"],["av","es"],["m","on"],["ar","ter"],["ĠH","al"],["ra","in"],["Ġ197","4"],["ourn","al"],["an","o"],["Ġl","ow"],["ra","p"],["rop","olit"],["Ġf","ield"],["iv","il"],["Ġhim","self"],["m","ost"],["Ġa","ward"],["Ġv","ide"],["Ġch","ampionship"],["Ġbec","ome"],["c","her"],["n","y"],["ĠA","sh"],["Ġ199","2"],["iber","al"],["ĠTor","onto"],["ĠT","enn"],["ĠC","he"],["ĠB","ob"],["Ġre","ached"],["Ġ194","5"],["ĠB","ridge"],["ric","h"],["at","ic"],["Ġc","rit"],["ĠG","r"],["iv","en"],["Ġe","ver"],["ers","h"],["Ġk","ey"],["Ġadd","ition"],["Ġm","en"],["ab","el"],["enc","ed"],["erg","y"],["i","h"],["ĠM","em"],["Ġm","ill"],["ĠAl","bert"],["Ġplay","s"],["Ġin","st"],["em","eter"],["ĠJohn","son"],["l","ing"],["v","al"],["ate","g"],["ĠSant","a"],["vi","ew"],["Ġhel","p"],["k","y"],["re","ed"],["Ġp","ower"],["ĠR","os"],["ĠW","in"],["im","b"],["Ġg","o"],["Ġro","ute"],["ff","ic"],["Ġfam","ous"],["o","ch"],["ĠN","o"],["ĠIn","ter"],["ĠBar","b"],["ĠColumb","ia"],["Ġp","at"],["Ġown","ed"],["er","land"],["Ġp","ract"],["ĠH","art"],["Ġcom","b"],["ĠD","ev"],["Ġprod","uc"],["an","ge"],["Ġ198","4"],["oci","ety"],["ĠSwed","ish"],["Ġs","l"],["Ġb","ass"],["ĠT","V"],["ĠC","as"],["ĠI","f"],["ĠF","C"],["g","es"],["w","ell"],["Ġ","&"],["Ġc","al"],["ropolit","an"],["i","res"],["ol","ution"],["ec","e"],["Ġar","ri"],["Ġ199","0"],["ĠRec","ords"],["Ġf","ree"],["mer","c"],["in","i"],["Ġ196","3"],["ĠCl","ub"],["Ġd","id"],["ĠN","ort"],["Ġsp","ok"],["Ġarri","ved"],["m","ar"],["ĠT","ay"],["ĠB","rad"],["Ġto","p"],["et","work"],["ur","ther"],["ĠA","rea"],["ĠN","ick"],["ro","ad"],["lin","ois"],["ĠIl","linois"],["p","e"],["t","i"],["Ġf","if"],["Ġmod","el"],["Ġl","ife"],["um","ent"],["Ġsp","ent"],["Ġ17","9"],["ĠSup","er"],["ĠO","ld"],["Ġim","p"],["Ġill","ust"],["ĠO","b"],["ste","in"],["F","L"],["ak","a"],["ugh","t"],["Ġbro","ught"],["Ġ","z"],["ĠAr","t"],["Ġtrad","itional"],["Ġexamp","le"],["l","a"],["ĠA","ward"],["ĠR","aj"],["Ġl","ives"],["Ġst","ruct"],["ĠOn","e"],["Ġ198","0"],["ĠCl","ark"],["ĠRepublic","an"],["ri","z"],["Ġv","ol"],["ap","e"],["Ġr","ace"],["emeter","y"],["1","9"],["A","A"],["Ġm","oth"],["ri","al"],["Ġ17","7"],["ĠBe","ach"],["Ġyoun","ger"],["lym","p"],["Ġt","ro"],["ed","y"],["st","ra"],["ĠO","lymp"],["Ġcon","stit"],["Ġper","iod"],["Ġoper","ated"],["w","are"],["Ġp","ark"],["ĠL","i"],["Ġconsid","ered"],["ess","ee"],["ĠTenn","essee"],["ĠD","emocrat"],["iv","id"],["Ġcont","rol"],["ĠAc","adem"],["ĠRou","te"],["i","ro"],["i","Äĩ"],["Ġc","ould"],["Ġm","ethod"],["Ġsout","heast"],["o","o"],["Ġf","ind"],["Ġme","chan"],["Ġfa","ctor"],["bur","gh"],["ĠD","en"],["ĠMus","ic"],["ĠâĢ","Ļ"],["Ġcod","ice"],["Ġpriv","ate"],["ĠS","ov"],["Ġp","res"],["ĠI","m"],["ĠF","irst"],["ist","ic"],["Ġg","e"],["Ġprov","inc"],["Ġexp","ress"],["Ġvar","ious"],["Ġsupport","ed"],["ol","ved"],["ĠSt","ud"],["ab","or"],["Ġte","levision"],["y","r"],["Ä","±"],["ad","el"],["ĠK","ar"],["ĠK","ore"],["Ġrep","ort"],["Ġ199","1"],["Ġ197","9"],["aw","a"],["Ġ17","8"],["ĠAust","ria"],["Ġlyric","s"],["c","ia"],["Ġs","et"],["re","am"],["ĠG","od"],["Ġte","ac"],["Ġt","urn"],["ĠK","ent"],["Ġde","b"],["Ġ196","2"],["Ġcons","ists"],["ĠFranc","isco"],["itte","e"],["m","e"],["Ġpro","p"],["ear","ch"],["Ġrem","ained"],["j","a"],["Å","Ł"],["Ġf","em"],["Ġf","ew"],["ord","ered"],["Ġac","quired"],["ĠM","ike"],["Ġcl","ose"],["Ġcl","aim"],["Ġim","m"],["Ġbl","ue"],["Ġt","er"],["ĠS","ur"],["Ġg","iven"],["ian","o"],["est","ival"],["Ġbec","ause"],["ock","ey"],["ĠGre","at"],["Ġgroup","s"],["Ġadd","ed"],["Ġinc","re"],["Ġsuccess","ful"],["ĠC","ub"],["Ġh","ost"],["Ġcom","merc"],["Ġte","x"],["ĠP","rad"],["Ġ199","6"],["Ġa","v"],["ĠR","es"],["ĠD","ar"],["ĠD","al"],["emb","ly"],["Ã","¢"],["Ġ","ide"],["in","t"],["Ġa","ut"],["ĠC","oll"],["ĠE","r"],["Ġ198","9"],["por","ary"],["ĠPort","ug"],["le","cted"],["Ġd","own"],["Ġl","ight"],["us","ed"],["ord","in"],["Ġserv","es"],["ograph","y"],["u","ter"],["Ġse","e"],["ph","ia"],["ĠSw","itz"],["air","man"],["Ġsum","mer"],["adel","phia"],["ĠSwitz","erland"],["i","oc"],["ĠM","ic"],["ĠL","aw"],["ot","ed"],["ĠS","ri"],["ĠS","ab"],["ĠC","ount"],["il","ies"],["ĠW","at"],["ous","in"],["Ġ198","2"],["Ġind","ivid"],["ĠBrazil","ian"],["ersh","ip"],["ĠM","at"],["Ġd","ata"],["ĠP","an"],["Ġec","onom"],["g","ed"],["k","o"],["Ġre","al"],["ist","ical"],["ĠM","u"],["ĠN","ik"],["ĠSt","at"],["Ġpro","cess"],["op","p"],["Ġri","ght"],["Ġbuild","ing"],["w","estern"],["ĠP","ac"],["ĠK","ong"],["Ġ198","6"],["ĠO","s"],["ĠPr","ince"],["Ġpresent","ed"],["ĠIr","ish"],["Ġt","ourn"],["ĠTurk","ey"],["Ġin","form"],["ag","ed"],["ak","es"],["Ġ198","7"],["ĠB","ir"],["Ġd","rum"],["ĠD","ire"],["Ġfam","ilies"],["Ġcons","ist"],["Ġind","ust"],["Ġrel","ation"],["ĠPhil","adelphia"],["at","ors"],["ĠB","ank"],["ĠL","ong"],["ĠJ","ust"],["Ġwh","om"],["Ġc","hem"],["ĠH","all"],["Ġl","ike"],["Ġpart","ic"],["Ġmov","ement"],["Ġlangu","ages"],["Ġstand","ard"],["w","an"],["w","orth"],["Ġcon","v"],["Ġse","ction"],["ect","ed"],["Ġinclud","es"],["Ġab","ove"],["Ġsong","s"],["ĠBas","ketball"],["Ġhistor","ical"],["Ġfif","th"],["ĠB","ow"],["Ġg","ood"],["a","ff"],["he","st"],["Ġc","oll"],["ĠB","ern"],["ĠP","en"],["Ġn","atural"],["Ġg","u"],["ĠAl","i"],["Ġmount","ain"],["Ġf","ict"],["ĠR","ay"],["Ġon","ce"],["ĠJe","ff"],["il","i"],["ĠG","h"],["ut","es"],["Ġle","ague"],["ĠPol","ish"],["Ġpain","ter"],["ecut","ive"],["and","ed"],["Ġpart","y"],["Ġdistrict","s"],["olog","ist"],["Ġcount","ry"],["B","S"],["p","ur"],["at","re"],["ĠS","qu"],["ĠS","erv"],["ur","t"],["iv","ing"],["em","porary"],["ain","e"],["Ġan","al"],["ud","d"],["ĠIsland","s"],["Ġconst","ru"],["ĠTay","lor"],["and","ra"],["al","es"],["ĠM","ag"],["Ġ196","9"],["ron","ic"],["Ġindepend","ent"],["Ġs","ym"],["Ġm","ater"],["Ġte","chn"],["Ġ199","4"],["bor","ough"],["chan","ge"],["Ġindivid","ual"],["er","ation"],["Ġin","s"],["Ġw","id"],["ĠJ","on"],["Ġev","en"],["r","ative"],["Ġf","re"],["Ġd","ays"],["Ġcomple","x"],["Ġen","ergy"],["ĠFranc","is"],["ĠS","k"],["ĠT","o"],["Ġm","ult"],["u","x"],["ĠH","ow"],["ad","or"],["Ġ198","3"],["ĠAv","enue"],["ĠSov","iet"],["f","ect"],["Ġt","re"],["ĠB","ure"],["Ġre","ad"],["ĠG","rand"],["ant","on"],["Ġch","urch"],["Ġlim","ited"],["Ġnewsp","aper"],["Ġin","stead"],["Ġs","ite"],["Ġ197","1"],["augh","t"],["Ġsub","urb"],["ĠJo","e"],["Ġtem","per"],["ĠB","ou"],["ĠB","ol"],["ĠR","oss"],["ĠD","or"],["av","a"],["or","ies"],["as","k"],["ĠP","rim"],["ĠO","ther"],["Ġan","c"],["Ġspec","ific"],["ĠCon","nect"],["ĠScott","ish"],["ĠPac","ific"],["ĠM","os"],["Ġm","ag"],["om","er"],["Ġfe","at"],["Ġren","amed"],["ĠC","ard"],["Ġ198","1"],["Ġ198","8"],["Ġ197","5"],["Ġrelation","ship"],["c","ast"],["ĠC","a"],["Ġ196","6"],["Ġele","ments"],["Ġmus","ical"],["h","ab"],["es","c"],["ĠN","ic"],["ĠK","ansas"],["Ġsh","ip"],["ath","an"],["Ġserv","ice"],["Ġgrand","son"],["Ġcompos","er"],["osp","ital"],["ĠCath","olic"],["an","z"],["Ġf","urther"],["Ġd","ra"],["ot","s"],["ov","a"],["Ġplay","ing"],["Ġlar","gest"],["Ġl","ess"],["ian","a"],["Ġreg","ular"],["ĠFor","ce"],["ĠChrist","ian"],["av","ing"],["ak","er"],["Ġcl","osed"],["Ġart","ist"],["h","ood"],["n","ess"],["u","ency"],["Ġc","op"],["ĠP","un"],["Ġn","ever"],["ĠW","all"],["ĠK","en"],["Ġse","lected"],["iz","e"],["Ġ199","7"],["ĠPhil","ip"],["ĠGovern","ment"],["er","b"],["ĠMar","c"],["Ġmain","ly"],["Ġtra","ined"],["ĠMount","ain"],["Ġteac","her"],["it","her"],["ĠL","y"],["ut","ch"],["ĠAn","other"],["Ġ196","7"],["Ġrec","ogn"],["Ġother","s"],["Ġpolit","ician"],["Ġvide","o"],["a","ut"],["u","le"],["le","g"],["ac","ing"],["Ġk","ing"],["ĠMet","ropolitan"],["1","2"],["Ġsc","ient"],["Ġoffic","ially"],["Ġvis","ited"],["ĠPrad","esh"],["d","e"],["ĠM","ost"],["ĠMar","ia"],["Ġcommerc","ial"],["p","son"],["ĠR","od"],["ig","ious"],["ud","e"],["Ġbro","ad"],["Ġ192","0"],["uk","e"],["Ġair","port"],["Ġtyp","e"],["Ġguitar","ist"],["ĠFred","er"],["d","a"],["Ġ","$"],["Ġc","ivil"],["ĠS","ome"],["ĠH","el"],["ist","an"],["eb","all"],["Ġad","v"],["way","s"],["Ġpos","ition"],["z","a"],["he","ad"],["at","ter"],["ic","ut"],["Ġd","oc"],["ĠH","un"],["ir","it"],["Ġj","ust"],["Ġtrad","ed"],["ĠCap","e"],["Ġtak","en"],["ĠConnect","icut"],["w","a"],["and","id"],["ĠC","orn"],["ĠB","ig"],["ĠE","s"],["av","al"],["Ġro","ck"],["Ġbook","s"],["h","an"],["ĠH","ou"],["Ġ194","0"],["ĠReg","ion"],["Ġne","igh"],["riz","ona"],["m","ing"],["p","ly"],["Ġo","pt"],["at","ives"],["om","en"],["ĠJ","ones"],["Ġn","ight"],["Ġ195","1"],["n","es"],["Ġ","ident"],["ĠS","and"],["ĠM","anche"],["st","r"],["ĠH","ong"],["ĠD","ie"],["ri","ght"],["ĠG","il"],["ly","n"],["ear","s"],["Ġj","ournal"],["Ġcont","emporary"],["ĠComm","un"],["ces","ter"],["ĠPat","rick"],["Ġdest","roy"],["ĠManche","ster"],["Ġc","ousin"],["ĠD","ou"],["ĠG","o"],["Ġfilm","s"],["g","y"],["Ġin","te"],["ĠA","rizona"],["ĠB","illy"],["ĠL","ord"],["od","es"],["Ġbe","h"],["ĠSp","ring"],["oy","d"],["ĠSer","b"],["Ġ","Å"],["ĠO","x"],["Ġnorth","west"],["ĠCon","s"],["F","A"],["w","en"],["Ä","į"],["ĠT","ra"],["est","s"],["Ġqu","ant"],["Ġyoun","g"],["Ġcontin","ued"],["ĠL","ar"],["ĠL","ie"],["ri","p"],["Ġstud","y"],["ĠRuss","ia"],["ĠNort","hern"],["g","round"],["al","k"],["ĠB","re"],["ĠR","og"],["ĠJ","er"],["im","ate"],["Ġg","irl"],["ĠV","en"],["av","er"],["Ġ193","2"],["Ġlead","er"],["n","ic"],["Ġc","ase"],["ĠS","un"],["Ġm","ix"],["ĠP","arliament"],["ĠL","or"],["ĠF","ilm"],["Ġpro","per"],["ak","i"],["ĠStev","e"],["Ġconstit","uency"],["h","ib"],["ed","d"],["Ġf","ig"],["ĠM","ajor"],["ĠB","ul"],["Ġd","ig"],["ĠN","avy"],["ut","en"],["uc","c"],["Ġse","en"],["Ġcre","ate"],["Ġhum","an"],["c","ul"],["y","ear"],["on","n"],["ĠB","enn"],["ĠH","aw"],["ol","f"],["ĠN","ich"],["res","ents"],["Ġrep","resents"],["pl","ay"],["ĠBarb","ara"],["Ġs","yn"],["Ġb","ank"],["ir","on"],["Ġst","age"],["sy","ch"],["ĠL","ittle"],["ĠJ","ess"],["ĠG","ord"],["ĠAs","ia"],["ipp","i"],["ĠPol","and"],["ĠEx","press"],["Ġam","ong"],["Ġfin","ished"],["Ġdestroy","ed"],["re","y"],["Ġc","andid"],["ĠT","er"],["ĠM","oh"],["Ġd","am"],["Ġh","y"],["th","ur"],["ĠU","K"],["ather","ine"],["Ġinv","est"],["Ġpo","et"],["t","ra"],["Ġs","en"],["ĠC","at"],["ĠA","rab"],["ĠI","ran"],["ĠL","ew"],["ĠG","ian"],["id","s"],["Ġ196","4"],["ĠOlymp","ic"],["ĠAcadem","y"],["ĠL","im"],["Ġbe","g"],["ĠBar","on"],["Ġconnect","ed"],["Ġmerg","ed"],["ĠH","ay"],["ĠL","l"],["Ġus","ually"],["Ġmov","ing"],["ĠWal","ter"],["Ġtourn","ament"],["i","y"],["s","en"],["Ġt","imes"],["ĠH","or"],["ap","s"],["Ġ3","2"],["Ġle","vel"],["ĠAr","thur"],["Ġtw","ice"],["ĠBure","au"],["or","ial"],["ĠA","k"],["Ġd","el"],["ĠP","o"],["ĠK","e"],["Ġpro","ble"],["land","s"],["amp","ton"],["Ġ196","0"],["ĠPer","u"],["Ġreport","ed"],["b","o"],["Ġp","ot"],["Ġdef","ined"],["Ġkn","ow"],["Ġsix","th"],["ĠJac","ob"],["Ġfem","ale"],["b","and"],["y","cl"],["er","ved"],["ar","th"],["ĠM","r"],["ĠI","v"],["ain","t"],["ĠIt","s"],["Ġr","ul"],["ĠGovern","or"],["for","man"],["4","0"],["Ġd","em"],["om","m"],["Ġl","iter"],["ĠV","i"],["Ġrun","s"],["Ġhig","hest"],["ĠStat","istical"],["l","ess"],["r","ack"],["ĠL","ind"],["ĠG","ames"],["ĠF","ort"],["ĠF","air"],["ĠE","ric"],["Ġdep","artment"],["ĠT","a"],["Ġp","red"],["ĠB","and"],["ur","s"],["ĠSt","ock"],["Ġ195","7"],["Ġfl","ows"],["ĠComm","ittee"],["Ġdisc","overed"],["Ġstr","ong"],["al","th"],["at","ory"],["il","ton"],["ok","e"],["Ġplay","ers"],["Ġsec","ret"],["orm","al"],["ĠCon","st"],["Ġph","ot"],["Ġchang","ed"],["Ġspok","en"],["Ġmater","ial"],["ĠDie","go"],[".","."],["a","wn"],["Ġc","ir"],["ce","an"],["Ġbe","at"],["ect","ion"],["Ġres","ult"],["Ġprevious","ly"],["ĠR","h"],["ant","ed"],["Ġun","ivers"],["Ġle","arn"],["ern","and"],["Ġ193","0"],["ĠCongress","ional"],["ĠHou","ston"],["Ġ","enc"],["ar","ters"],["Ġc","le"],["ĠS","ince"],["Ġfollow","s"],["Ġgovern","or"],["Ġtro","ops"],["b","ec"],["d","est"],["ic","ated"],["ĠC","ensus"],["Ġun","iversity"],["Ġsp","e"],["ĠAm","b"],["inn","ing"],["ĠHigh","way"],["ĠVictor","ia"],["Ġgrad","uated"],["ĠGord","on"],["g","en"],["u","z"],["Ġformer","ly"],["Ġdistribut","ed"],["b","ol"],["ar","es"],["Ġs","u"],["Ġb","ody"],["ic","an"],["ĠP","ri"],["ĠE","ver"],["ell","i"],["fer","ence"],["ĠArgent","ina"],["ĠOn","tar"],["ĠGre","g"],["ĠOntar","io"],["Ġs","em"],["ĠC","emetery"],["Ġp","ress"],["ĠB","rid"],["ĠH","a"],["ĠK","enn"],["Ġ197","8"],["Ġco","ach"],["ioc","ese"],["ĠT","en"],["ĠT","wo"],["ĠM","ir"],["Ġst","ates"],["ĠAr","my"],["l","im"],["r","or"],["re","en"],["Ġm","ass"],["ĠP","oint"],["Ġl","ib"],["ĠD","ay"],["ĠW","ind"],["Ġe","ight"],["Ġal","tern"],["ug","by"],["Ġ199","5"],["ĠInd","ones"],["Ġson","s"],["Ġele","ment"],["Ġlist","ed"],["ĠArm","en"],["ĠMiss","iss"],["ĠUt","ah"],["t","ing"],["Ġof","fer"],["ĠM","ax"],["Ġm","uch"],["Ġis","s"],["ĠH","ung"],["Ġn","eg"],["Ġn","etwork"],["ow","a"],["ĠSt","ew"],["res","p"],["Ġr","ural"],["Ġex","cept"],["ĠZ","h"],["Ġcont","ains"],["Ġso","ft"],["ĠJack","son"],["Ġrad","io"],["i","at"],["w","ick"],["ĠD","utch"],["ĠF","er"],["ĠF","inn"],["us","band"],["Ġar","my"],["ah","oma"],["Ġph","il"],["ĠQue","ens"],["ĠC","am"],["ĠC","ont"],["ro","v"],["ĠH","ard"],["em","ents"],["oc","al"],["Ġ3","3"],["ang","a"],["Ġper","forman"],["o","ir"],["ĠP","ak"],["ĠJ","ason"],["ĠG","ood"],["un","k"],["ĠV","erm"],["ĠIndian","a"],["Ġcontin","u"],["Ġel","dest"],["Ġeduc","ation"],["uten","ant"],["Ġt","ake"],["Ġcor","resp"],["Ġeffect","s"],["Ġcorresp","ond"],["k","es"],["y","e"],["Ġb","ranch"],["ĠB","or"],["ĠH","av"],["om","s"],["ĠG","reek"],["ĠK","el"],["ard","o"],["man","n"],["Ġ199","8"],["ĠAll","en"],["Ġgeneral","ly"],["ĠSec","ond"],["Ġdeb","ut"],["Ġimm","ig"],["ĠSl","ov"],["a","ign"],["an","j"],["Ġm","ale"],["ĠL","ater"],["ĠN","a"],["ĠF","ield"],["ay","a"],["Ġ194","7"],["Ġ195","0"],["Ġ193","8"],["Ġpre","m"],["ĠMary","land"],["ĠLat","in"],["Ġv","ict"],["Ġass","oci"],["l","ahoma"],["m","ad"],["ĠT","y"],["ĠB","ab"],["Ġh","usband"],["ol","n"],["ec","k"],["Ġan","im"],["ĠAl","f"],["ĠEl","l"],["Ġ191","7"],["ĠQue","bec"],["Ġfin","anc"],["ĠOk","lahoma"],["in","ent"],["in","ation"],["Ġs","il"],["Ġb","ought"],["um","e"],["ain","ing"],["Ġcon","du"],["Ġacc","ording"],["ĠBo","ard"],["b","ab"],["t","own"],["Ġf","ull"],["ĠM","umb"],["Ġd","ou"],["st","own"],["ad","o"],["ĠN","at"],["ĠF","ar"],["em","p"],["ig","er"],["ubl","in"],["ten","s"],["Ġ195","5"],["Ġfinal","s"],["Ġme","as"],["ject","ed"],["Ġcompet","ition"],["Ġproduc","er"],["Ġinte","g"],["ĠStew","art"],["g","l"],["m","ore"],["m","ark"],["o","or"],["s","il"],["ĠM","it"],["ac","y"],["Ġwh","ose"],["ev","in"],["ound","ed"],["y","th"],["Ġb","ishop"],["Ġc","orn"],["ĠT","od"],["om","p"],["Ġn","in"],["av","ia"],["Ġ199","3"],["Ġ198","5"],["Ġfootball","er"],["Ġcol","on"],["Ġrem","ains"],["Ġmanag","ed"],["Ġcandid","ate"],["o","e"],["ĠB","C"],["Ġserv","ices"],["m","it"],["x","im"],["on","ia"],["Ġin","stit"],["ĠB","BC"],["Ġl","aun"],["our","t"],["Ġ197","3"],["ĠMc","G"],["Ġcap","t"],["ĠNor","way"],["ĠFin","land"],["Ġeng","ine"],["Ġaward","ed"],["Ġstruct","ure"],["ĠM","unicip"],["ĠComm","ission"],["Ġparticip","ated"],["c","el"],["et","te"],["ĠO","per"],["um","ar"],["Ġcon","d"],["on","ic"],["ed","ed"],["Ġal","most"],["Ġan","y"],["Ã¡","n"],["Ġcount","ries"],["l","am"],["as","ia"],["re","al"],["ĠC","ass"],["Ġp","arliament"],["ĠJ","enn"],["ĠG","ard"],["Ġg","ave"],["ect","s"],["uk","a"],["Ġinter","est"],["Ġmat","ch"],["Ġcamp","aign"],["ĠWil","son"],["Ġlimp","et"],["Ġmeet","ing"],["ĠDire","ctor"],["r","ary"],["ĠC","ra"],["Ġn","ative"],["ĠO","h"],["Ġst","ar"],["ĠAn","t"],["ess","ion"],["Ġar","ran"],["ann","a"],["ĠJan","e"],["Ġopen","ing"],["med","i"],["ĠGra","ham"],["w","rit"],["al","am"],["ĠS","y"],["ou","l"],["ĠB","ry"],["ĠH","um"],["ĠV","er"],["Ġle","t"],["ĠMad","h"],["ĠR","id"],["th","a"],["ĠV","an"],["ĠAn","ne"],["ĠAss","embly"],["Ġgre","en"],["Ġhead","qu"],["ĠLeg","islative"],["u","f"],["Ġs","qu"],["al","i"],["Ġc","ou"],["Ġh","on"],["ĠL","ove"],["ĠD","er"],["ir","a"],["all","as"],["Ġun","it"],["Ġ197","7"],["ĠCol","on"],["az","z"],["ĠCarol","ina"],["Ġadminist","rative"],["Ġprop","osed"],["ĠC","op"],["Ġm","ention"],["ent","ed"],["ĠP","re"],["ub","b"],["hen","s"],["Ġoff","ice"],["b","ell"],["Ġ","emb"],["Ġw","ide"],["Ġc","er"],["ĠS","us"],["il","a"],["ĠL","inc"],["Ġe","ither"],["op","al"],["ap","t"],["ric","ket"],["Ġcomp","an"],["Ġ194","2"],["Ġprov","ided"],["az","i"],["ĠJu","an"],["ĠPar","ish"],["ĠWh","ile"],["ĠAnton","io"],["ĠDep","artment"],["ĠLinc","oln"],["a","ily"],["Å","¡"],["ĠL","ine"],["ĠW","ild"],["ĠFor","est"],["Ġs","our"],["Ġf","ranch"],["Ġc","ert"],["Ġm","em"],["im","ent"],["ap","ur"],["Ġad","op"],["Ġtrans","ferred"],["Ġdoc","ument"],["Ġ","i"],["Ġt","aught"],["Ġf","r"],["ĠT","am"],["Ġh","ous"],["um","er"],["Ġsh","ot"],["ann","el"],["Ġso","on"],["Ġsur","f"],["r","Ã©"],["Ġf","ederal"],["ĠS","ol"],["ad","ron"],["ĠN","C"],["ur","d"],["ir","th"],["ĠO","reg"],["ra","el"],["ap","ers"],["Ġse","g"],["Ġapp","lic"],["Ġsup","er"],["hem","at"],["Ġinform","ation"],["Ġtemper","ature"],["ĠOreg","on"],["o","f"],["Ġt","est"],["ĠL","and"],["ĠD","ublin"],["ĠO","cean"],["se","qu"],["Ġtrack","s"],["Ġbroad","cast"],["b","ishop"],["il","s"],["ĠM","iddle"],["id","ence"],["Ġpro","bab"],["Ġqu","al"],["ĠAfric","an"],["Ġpartic","ular"],["ĠOx","ford"],["h","ar"],["o","on"],["u","ction"],["ĠS","ociety"],["Ġl","ower"],["ĠIn","stit"],["ĠPro","du"],["Ġrel","igious"],["Ġsev","en"],["oth","y"],["urb","an"],["b","ra"],["l","an"],["o","a"],["Ġa","ver"],["ĠF","re"],["ĠF","ox"],["ĠW","ay"],["ut","ions"],["ag","en"],["ul","pt"],["ell","o"],["ĠY","oun"],["Ġsp","irit"],["Ġbro","wn"],["ĠIs","rael"],["Ġ195","3"],["Ġ192","8"],["inn","er"],["Ġappear","s"],["Ġcommun","ities"],["ĠBer","lin"],["agn","etic"],["Ġperson","al"],["ĠAtlant","a"],["ĠFreder","ick"],["ĠNich","ol"],["ĠMississ","ippi"],["ĠB","rian"],["ĠF","estival"],["ĠV","ol"],["end","s"],["Ġbrother","s"],["ÃŃ","n"],["Ġtyp","es"],["ĠOh","io"],["an","ian"],["Ġ.",".."],["ĠS","ev"],["Ġl","ines"],["Ġg","row"],["Ġse","at"],["Ġ194","8"],["ĠMal","ay"],["ĠGeorg","ia"],["Ġinst","rum"],["ĠLl","oyd"],["ĠMumb","ai"],["Ġw","ay"],["ĠP","rem"],["ĠThe","atre"],["ut","y"],["ĠK","ir"],["ĠK","evin"],["Ġall","ow"],["ĠSe","a"],["Ġob","s"],["d","am"],["l","ad"],["m","en"],["r","ations"],["t","ained"],["on","i"],["ĠM","ap"],["ĠB","j"],["ol","id"],["ĠL","ank"],["ĠE","astern"],["Ġv","otes"],["op","er"],["Ġde","g"],["Ġsh","ould"],["Ġman","usc"],["Ġoffic","er"],["ene","z"],["Ġd","yn"],["ĠR","ev"],["ĠK","arl"],["Ġst","ory"],["Ġmus","eum"],["Ġorig","in"],["uck","y"],["Ġocc","up"],["Ġ","Â"],["on","ent"],["Ġ1","00"],["ĠR","on"],["un","a"],["ĠW","ater"],["Ġ191","5"],["ĠBrit","ain"],["Ġinter","view"],["ĠRuss","ell"],["ĠSam","uel"],["ĠDel","hi"],["Ġvi","ew"],["Ġmill","ion"],["h","sil"],["Ġin","j"],["ĠG","ro"],["ip","e"],["ord","ers"],["Ġass","igned"],["bor","o"],["Ġmention","ed"],["m","ir"],["ic","ation"],["Ġc","old"],["ĠD","i"],["ĠD","u"],["ĠG","i"],["Ġfor","ces"],["ill","a"],["ric","e"],["Ġ16","5"],["Ġtra","vel"],["Ġhistor","ic"],["Ġconst","ant"],["Ġcult","ure"],["d","y"],["Ã","¨"],["or","a"],["it","es"],["Ġc","overed"],["Ġp","ian"],["Ġun","ique"],["ĠJoh","ann"],["Ġcent","er"],["Ġret","ired"],["ĠRail","road"],["d","on"],["in","ear"],["or","ter"],["Ġo","x"],["re","p"],["ĠA","ct"],["ou","ver"],["Ġn","ar"],["ran","t"],["og","rap"],["enn","is"],["eng","th"],["Ġlimp","ets"],["Ġpot","ential"],["h","ouse"],["ĠD","allas"],["ĠN","ag"],["Ġfor","ce"],["Ġmar","ri"],["Ġy","ellow"],["pl","oy"],["2","0"],["g","s"],["al","le"],["al","ia"],["Ġc","ast"],["ĠC","ross"],["ĠM","ort"],["ĠM","any"],["im","er"],["Ġart","ic"],["Ġsim","ple"],["Ġfranch","ise"],["Ġaver","age"],["w","ar"],["ĠF","ollow"],["Ġform","s"],["Ġprom","inent"],["Ġelect","ric"],["b","an"],["u","er"],["Ġb","ase"],["Ġf","und"],["ĠA","C"],["Ġm","iddle"],["ĠW","y"],["ĠV","eg"],["ik","a"],["ail","ed"],["Ġ195","8"],["ward","s"],["ĠCar","ter"],["Ġfl","ow"],["ĠCent","er"],["Ġmonth","s"],["ĠLew","is"],["ĠVerm","ont"],["he","astern"],["Ġb","re"],["Ġl","abel"],["Ġele","ctions"],["Ġcent","re"],["Ġ193","4"],["Ġgen","us"],["Ġsub","ject"],["ĠCo","ast"],["Ġmunicip","al"],["Ġinflu","ence"],["Ġpract","ice"],["c","y"],["ĠT","ok"],["Ġd","om"],["ol","is"],["ĠD","am"],["ur","u"],["ĠF","el"],["ist","ry"],["ĠK","ath"],["ian","ce"],["Ġal","ways"],["ĠV","anc"],["ĠU","k"],["Ġ196","1"],["ĠPro","fess"],["Ġ192","4"],["Ġdaughter","s"],["Ġclass","ical"],["ĠVanc","ouver"],["c","an"],["as","a"],["ann","ed"],["ĠAnd","re"],["ĠMount","ains"],["Ã¶","r"],["ĠSar","ah"],["ĠRad","io"],["g","ian"],["l","ers"],["w","ich"],["Ġb","ar"],["ĠB","a"],["ĠB","ell"],["am","in"],["ĠN","FL"],["ist","ant"],["um","p"],["Ġsp","ons"],["Ġle","ast"],["ff","ield"],["ĠShe","ffield"],["ele","b"],["mon","ton"],["Ġter","rit"],["Ġthe","ory"],["Ġh","ard"],["om","es"],["ia","ble"],["ob","al"],["Ġsc","ene"],["ĠBl","ue"],["lin","es"],["Ġdiv","ided"],["ĠOl","iver"],["Ġbel","iev"],["ĠCamp","bell"],["Ġdirect","ly"],["ĠJust","ice"],["t","ime"],["Ġc","eleb"],["ĠT","ri"],["ĠM","od"],["le","ment"],["ĠD","ick"],["ĠN","ap"],["ĠAn","na"],["Ġex","hib"],["rad","e"],["Ġcomm","ission"],["Ġsc","ulpt"],["ĠCl","a"],["Ġend","ed"],["Ġdisc","uss"],["Ġdiv","ision"],["Ġbas","ic"],["Ġref","ers"],["ĠEv","ans"],["Ã³","n"],["Ġphys","ical"],["Ã","§"],["ĠB","ang"],["ĠB","attle"],["Ġd","ry"],["ig","a"],["ak","h"],["ĠMar","gar"],["Ġus","ing"],["Ġcl","os"],["Ġres","earch"],["ple","ment"],["Ġappro","xim"],["ĠArch","bishop"],["ĠCro","at"],["Ġever","y"],["ĠFollow","ing"],["u","ese"],["Ġt","able"],["ĠS","outhern"],["ĠM","y"],["el","a"],["ĠR","al"],["ri","ff"],["ĠJ","am"],["Ġre","jected"],["ĠN","ar"],["Ġn","ames"],["inal","ly"],["Ġab","s"],["Ġcomm","and"],["ister","ed"],["Ġdefe","ating"],["ĠDe","f"],["Ġsystem","s"],["ĠAdam","s"],["ĠStud","ios"],["ĠPortug","uese"],["Ġlaun","ched"],["Ġm","ot"],["ĠB","et"],["Ġto","day"],["Ġd","ed"],["Ġh","old"],["ĠH","ot"],["ul","ts"],["ell","ed"],["Ġ4","0"],["Ġ5","0"],["Ġra","ised"],["Ġheadqu","arters"],["Ġpian","ist"],["y","al"],["Ġb","ridge"],["ĠA","h"],["ĠB","ishop"],["ol","m"],["ur","st"],["ĠF","ernand"],["ĠW","isc"],["ig","rated"],["ĠK","at"],["Ġy","ou"],["Ġ192","1"],["Ġ191","9"],["ons","in"],["Ġthrough","out"],["vel","and"],["ĠTom","my"],["ĠBelg","ium"],["ĠCle","veland"],["ĠColon","el"],["ĠWisc","onsin"],["Ġ","eth"],["Ġ","urban"],["Ġc","aus"],["Ġn","ormal"],["Ġlar","ger"],["Ġbuild","ings"],["t","ies"],["z","y"],["ĠB","oth"],["Ġd","ue"],["ĠD","eb"],["ĠF","ederal"],["ĠE","ston"],["Ġ191","2"],["ĠBro","ad"],["ĠMal","ays"],["ĠMus","lim"],["Ġcamp","us"],["Ġcrit","ic"],["ĠKent","ucky"],["Ġcorn","er"],["e","ur"],["ĠJ","ay"],["Ġre","ferred"],["ĠG","ill"],["ut","s"],["ĠV","ale"],["Ġpl","aced"],["Ġlead","ers"],["ĠMus","eum"],["Ġcir","c"],["Ġmarri","age"],["u","i"],["Ġw","at"],["ĠC","ourt"],["ĠB","ri"],["Ġd","ark"],["Ġl","ake"],["Ġl","iberal"],["ĠJ","r"],["ĠN","ad"],["ap","ore"],["ĠY","ou"],["ass","ador"],["ins","ula"],["ĠEd","monton"],["Ġstud","ent"],["ĠGl","en"],["Ġtw","ent"],["ĠJim","my"],["ĠSing","apore"],["ĠHow","ard"],["Ġdig","ital"],["ĠConst","ant"],["Ġp","sych"],["ĠD","o"],["ĠSt","ar"],["qu","es"],["Ġfl","ed"],["ĠTe","am"],["ĠHer","bert"],["Ġsepar","ate"],["V","D"],["o","z"],["p","ar"],["v","est"],["Ġt","ri"],["in","burgh"],["Ġc","ycl"],["ĠS","i"],["ĠS","ara"],["ĠH","ug"],["ĠL","es"],["Ġl","og"],["ĠE","arl"],["ag","u"],["end","er"],["ĠUn","der"],["ĠEn","ter"],["oin","ts"],["ick","s"],["ĠEd","inburgh"],["Ġ195","4"],["Ġob","ject"],["ĠBrook","lyn"],["Ġassoci","ated"],["Ġw","omen"],["Ġs","ch"],["ĠAn","th"],["Ġtrans","port"],["Ġmin","ister"],["Ġprom","oted"],["a","ug"],["b","ro"],["Ġs","k"],["ĠC","ast"],["ĠB","oy"],["ĠR","ome"],["st","ad"],["ĠL","as"],["if","t"],["ep","hew"],["Ġsh","own"],["Ġsh","ows"],["ru","z"],["ann","ing"],["Ġ9","0"],["che","stra"],["Ġlead","s"],["Ġ188","5"],["ĠSim","on"],["ĠMont","real"],["ĠPet","ers"],["ĠServ","ice"],["r","us"],["r","ings"],["Ġc","at"],["ĠS","C"],["ro","e"],["ĠP","ier"],["Ġas","ked"],["Ġex","ist"],["Ġmet","al"],["Ġcer","em"],["ar","ies"],["ĠM","un"],["ĠM","inn"],["Ġh","ot"],["ĠP","res"],["Ġn","ephew"],["ir","t"],["ĠE","st"],["ĠO","f"],["ĠGre","ece"],["ĠBut","ler"],["ĠRog","er"],["ĠD","own"],["ell","ing"],["end","ing"],["per","or"],["Ġbo","ard"],["Ġart","ists"],["ĠMex","ican"],["Ġbel","ong"],["Ġcour","se"],["Ġincre","ased"],["o","ac"],["v","in"],["Ġw","anted"],["al","o"],["Ġb","ordered"],["ĠC","ur"],["Ġp","oints"],["Ġn","omin"],["ce","p"],["ab","ama"],["igh","ter"],["ĠAl","abama"],["Ġloc","ation"],["cl","iff"],["ail","able"],["Ġ194","3"],["ĠWar","ren"],["Ġbel","ow"],["ĠPhilipp","ine"],["Ġindust","rial"],["Ġdou","ble"],["Ġp","oint"],["ĠW","ing"],["Ġwith","d"],["Ġwe","ak"],["Ġvi","ol"],["ĠAtlant","ic"],["Ġadop","ted"],["g","ress"],["v","a"],["Ġf","ac"],["ĠS","at"],["ĠC","astle"],["ĠA","st"],["Ġd","riv"],["ĠP","ed"],["ol","ar"],["ĠN","ev"],["ĠO","p"],["ĠO","ak"],["ud","ge"],["ran","e"],["ran","ts"],["Ġpl","an"],["ass","y"],["Ġtown","ship"],["Ġsuc","ce"],["Ġmajor","ity"],["gy","pt"],["Ġproper","ties"],["Ġf","ight"],["ĠC","hen"],["ĠC","atherine"],["ĠM","id"],["ĠL","iberal"],["ian","t"],["Ġsev","enth"],["Ġexp","anded"],["ĠSte","f"],["ĠCub","a"],["3","5"],["g","ate"],["m","at"],["n","am"],["on","st"],["ĠS","aint"],["ĠT","re"],["ĠT","ren"],["ĠA","ud"],["ĠB","rig"],["ĠB","ucc"],["ĠThe","n"],["Ġn","umer"],["Ġe","igh"],["Ġro","yal"],["Ġcol","lege"],["Ġ188","8"],["act","ive"],["ĠHill","s"],["Ġdo","es"],["ĠHam","ilton"],["Ġav","ailable"],["ĠColl","ins"],["hab","ited"],["Ġquant","um"],["i","ers"],["j","an"],["k","en"],["Ġt","en"],["es","p"],["Ġd","omin"],["Ġde","ep"],["Ġed","itor"],["Ġsmall","er"],["Ġillust","rated"],["ĠIndones","ia"],["Ġsurf","ace"],["h","ai"],["t","im"],["Ġb","irth"],["ĠS","n"],["ĠS","her"],["ĠT","ony"],["ĠC","amb"],["ĠB","ru"],["ĠR","en"],["ĠJ","ord"],["im","um"],["ĠCh","and"],["Ġsp","ace"],["Ġout","side"],["ĠHol","ly"],["ĠBal","tim"],["Ġjournal","ist"],["ĠBaltim","ore"],["b","orn"],["Ġc","ases"],["ĠS","on"],["ĠB","us"],["ot","te"],["ĠAr","k"],["Ġbet","ter"],["Ġvill","ages"],["erv","ative"],["ray","ed"],["Ġsuccess","or"],["ĠTurk","ish"],["Ġchang","es"],["Ġprovinc","ial"],["ĠLie","utenant"],["e","z"],["i","u"],["n","i"],["Ġb","rew"],["ĠT","el"],["le","m"],["ĠD","et"],["ĠN","ash"],["ĠW","ang"],["ĠE","gypt"],["Ġan","t"],["cl","us"],["enn","a"],["Ġ194","6"],["ram","a"],["ĠBr","un"],["ĠKore","an"],["Ġneigh","bor"],["Ġhy","per"],["Ġvict","ory"],["Ġw","ind"],["Ġm","ur"],["Ġd","r"],["ad","i"],["ect","or"],["Ġex","change"],["Ġdire","ction"],["Ġem","ploy"],["ĠRob","in"],["Ġapproxim","ately"],["Ġmur","der"],["b","ie"],["c","raft"],["g","or"],["en","h"],["ĠS","A"],["ĠT","ai"],["Ġp","ri"],["ĠP","ope"],["ĠH","ockey"],["Ġre","ason"],["ak","ers"],["Ġmusic","ian"],["Ġconf","ir"],["Ġposs","ible"],["Ġcapt","ured"],["ĠMadh","ya"],["Ġtravel","ed"],["b","re"],["s","id"],["er","o"],["Ġin","sp"],["Ġm","ission"],["ĠI","owa"],["Ġon","line"],["ĠK","al"],["Ġcom","es"],["Ġag","reed"],["Ġim","medi"],["Ġmed","ia"],["Ġcoll","abor"],["ĠPak","istan"],["m","b"],["r","up"],["Ã","¥"],["ĠC","anton"],["ĠP","ost"],["ĠH","u"],["ĠH","ere"],["Ġfor","ced"],["ĠV","iet"],["ap","olis"],["Ġ195","6"],["Ġcharact","ers"],["Ġinflu","enced"],["ĠMem","orial"],["Ġpres","ence"],["Ġmix","ed"],["ĠFinn","ish"],["ĠMalay","alam"],["alle","l"],["ĠIn","f"],["Ġal","though"],["Ġsouth","west"],["ĠPl","ay"],["onom","ous"],["Ġlaw","yer"],["Ġsurv","ived"],["ĠSlov","ak"],["ĠLank","a"],["Ġded","icated"],["8","0"],["k","n"],["w","all"],["Ġc","ensus"],["ĠT","w"],["ĠC","yp"],["ĠA","ar"],["ing","u"],["ĠD","VD"],["Ġre","qu"],["ĠF","ound"],["ĠW","here"],["ĠK","as"],["ĠCh","ile"],["Ġch","ange"],["Ġ3","6"],["Ġk","ind"],["ĠUn","ivers"],["ren","ce"],["Ġres","ident"],["az","ine"],["Ġ192","7"],["ĠAm","ster"],["Ġ190","4"],["ony","m"],["Ġcult","ural"],["Ġchampionship","s"],["ĠLaw","rence"],["ĠQueens","land"],["ĠAmster","dam"],["re","ad"],["om","ing"],["ann","y"],["Ġ8","0"],["ĠAnd","ers"],["ĠRep","resent"],["Ġsol","o"],["ĠLar","ry"],["Ġspirit","ual"],["m","ont"],["re","te"],["ĠB","ed"],["ag","er"],["ip","s"],["Ġ17","5"],["Ġ17","6"],["ĠCon","n"],["Ġfinal","ly"],["Ġprofess","or"],["ĠPer","th"],["ĠSing","h"],["ĠMatt","hew"],["ĠKel","ly"],["en","ed"],["Ġh","ow"],["ant","ic"],["Ġpol","ice"],["Ġtre","at"],["Ġscient","ific"],["Ġsoft","ware"],["u","v"],["ĠS","ound"],["ĠT","rans"],["ĠC","ow"],["ou","ri"],["Ġl","ength"],["ĠF","e"],["ĠE","lect"],["ev","a"],["Ġ5","4"],["Ġover","all"],["Ġev","ents"],["ĠBra","ves"],["ĠCap","tain"],["ĠPhilipp","ines"],["ĠBul","gar"],["Ġprem","ier"],["Ġcompan","ies"],["ĠBj","Ã¶r"],["on","z"],["ĠA","ut"],["ĠB","os"],["Ġv","on"],["Ġun","cle"],["se","x"],["ĠWh","it"],["Ġacc","omp"],["Ġel","der"],["ĠSec","ret"],["ĠDemocrat","ic"],["ĠMoh","am"],["f","olk"],["in","us"],["Ġw","eb"],["Ġf","ought"],["ĠC","BS"],["Ġd","er"],["st","an"],["ĠH","an"],["ĠMar","sh"],["ĠSh","ah"],["Ġ193","5"],["Ġ193","6"],["Ġ193","7"],["ĠAnd","erson"],["ĠHar","v"],["ĠDan","ish"],["ific","ation"],["Ġ190","3"],["ĠNor","folk"],["Ġproble","ms"],["Ġcommission","ed"],["ĠBucc","in"],["Ġpremier","ed"],["t","rack"],["Ġa","ud"],["Ġc","ells"],["Ġd","aily"],["Ġh","ospital"],["ĠP","ublic"],["ac","hes"],["ĠCol","omb"],["ĠCharl","ie"],["Ġent","ire"],["Ġdistribut","ion"],["Ġbass","ist"],["ĠClark","e"],["Ġdrum","s"],["ĠInstit","ute"],["r","ac"],["z","h"],["Ã","¸"],["ĠM","as"],["Ġh","or"],["ĠN","ob"],["ĠW","es"],["Ġe","arl"],["ĠK","r"],["ag","h"],["Ġse","ats"],["we","gian"],["Ġ192","2"],["Ġme","ans"],["Ġ189","1"],["ĠNor","wegian"],["ĠSom","ers"],["Ġfre","qu"],["ĠPrim","e"],["Ġengine","er"],["ĠMunicip","ality"],["ĠFernand","o"],["Ġsucce","eded"],["t","le"],["Ġin","her"],["ĠD","ob"],["Ġac","ross"],["ĠHol","land"],["Ġfriend","s"],["ograph","ic"],["Ġext","rem"],["Ġopp","os"],["ĠNik","ol"],["E","O"],["b","ack"],["u","j"],["v","ent"],["Ġm","aster"],["ĠP","a"],["ol","i"],["ĠL","ive"],["ec","ess"],["Ġg","et"],["ĠV","enez"],["ĠHe","b"],["Ġch","airman"],["Ġr","are"],["tern","al"],["Ġ197","2"],["Ġfl","u"],["Ġpar","ish"],["umber","land"],["Ġair","craft"],["Ġmat","hemat"],["Ġresp","ect"],["cester","shire"],["ĠVale","a"],["ĠVenez","uel"],["is","ing"],["at","ively"],["Ġc","over"],["Ġl","ay"],["Ġg","ra"],["Ġex","tens"],["pp","er"],["erv","e"],["Ġpar","allel"],["Ġadd","itional"],["Ġtex","ts"],["ĠPen","insula"],["Ġaltern","ative"],["i","ece"],["Ã","±"],["is","ional"],["it","o"],["it","iz"],["ĠB","i"],["ĠH","ans"],["ov","ers"],["Ġwh","at"],["ĠMar","ie"],["ĠSh","awn"],["ĠMc","M"],["Ġjoin","t"],["Ġran","k"],["vers","e"],["ĠDun","can"],["ĠSen","ate"],["ĠArgent","ine"],["Ġchem","ical"],["Ġconstru","ction"],["Ġcontinu","ous"],["ĠYoun","g"],["p","os"],["ĠInd","epend"],["Ġup","per"],["ĠAnd","y"],["Ġqu","arter"],["Ġent","ered"],["Ġphil","os"],["w","er"],["and","ing"],["en","es"],["Ġp","il"],["il","ing"],["Ġm","ole"],["ĠB","ah"],["ĠR","ub"],["ĠL","ith"],["ĠL","ab"],["ĠD","ew"],["ĠN","BA"],["Ġn","ine"],["ĠO","wen"],["ĠSt","r"],["op","her"],["ĠCh","airman"],["Ġserv","ing"],["ĠTr","in"],["ĠMah","ar"],["Ġpr","inc"],["Ġnin","th"],["ĠMap","le"],["Ġbre","ak"],["ĠRal","ph"],["cliff","e"],["l","ied"],["in","ted"],["re","ady"],["ĠT","our"],["Ġd","anc"],["ĠThe","ir"],["ch","iev"],["ĠAt","hens"],["ĠSer","ies"],["Ġmay","or"],["Ġinit","ially"],["1","8"],["c","ott"],["f","it"],["g","a"],["i","idae"],["m","ers"],["s","ki"],["Ġt","ells"],["Ġw","oman"],["en","er"],["es","ota"],["ĠP","op"],["st","one"],["ĠN","ight"],["ĠN","iger"],["us","e"],["ul","ate"],["Ġal","ready"],["ĠV","ill"],["Ġ201","8"],["ant","ry"],["our","g"],["Ġ196","5"],["Ġrec","ently"],["ash","tra"],["ĠBar","n"],["ĠCent","re"],["Ġran","ge"],["Ġleg","islative"],["Ġsepar","ated"],["Ġfeat","ures"],["ĠDer","by"],["ĠMinn","esota"],["ĠFound","ation"],["i","as"],["Ġt","ree"],["ro","wn"],["Ġto","ld"],["ĠR","a"],["ĠL","ib"],["Ġth","ose"],["Ġar","g"],["Ġme","ets"],["Ġsur","round"],["Ġport","rayed"],["Ġprovinc","es"],["Ġmag","azine"],["ĠMargar","et"],["9","2"],["C","A"],["H","L"],["b","i"],["d","ah"],["Ġt","al"],["en","se"],["ĠM","and"],["Ġd","et"],["ĠL","am"],["Ġl","ook"],["et","z"],["ĠG","ary"],["ĠG","onz"],["ĠW","a"],["ĠE","ug"],["av","el"],["Ġ3","5"],["Ġ3","7"],["Ġ6","0"],["Ġus","es"],["ĠJohn","ny"],["Ġrec","omm"],["Ġ194","4"],["Ġ191","0"],["Ġco","ordin"],["Ġgen","er"],["Ġrecord","ing"],["Ġreturn","ing"],["Ġ190","1"],["Ġoper","ates"],["Ġmed","al"],["ĠQue","en"],["Ġisland","s"],["Ġoffer","ed"],["kn","own"],["e","h"],["Ġ","+"],["ĠS","id"],["ĠB","ad"],["ĠW","el"],["ia","g"],["Ġse","qu"],["ĠJun","ction"],["ict","ion"],["Ġmain","tained"],["ĠSil","ver"],["3","6"],["p","ite"],["Ġa","ction"],["ĠS","und"],["Ġp","ast"],["ĠB","ris"],["Ġd","u"],["am","i"],["ĠR","yan"],["ĠP","as"],["ĠP","ress"],["ĠL","ower"],["ĠL","ady"],["Ġl","inear"],["ad","ium"],["ĠN","ed"],["ĠG","all"],["th","let"],["ĠF","il"],["ĠW","eb"],["Ġst","ars"],["ĠTh","ree"],["pp","ed"],["ĠPh","ill"],["Ġ191","8"],["Ġ190","6"],["ĠEm","ma"],["Ġent","rep"],["Ġ185","8"],["ĠGl","as"],["Ġshort","ly"],["Ġinit","ial"],["Ġillust","rations"],["Ġexpress","ed"],["ĠBrid","g"],["ĠJord","an"],["Ġentrep","ren"],["b","el"],["c","ont"],["e","es"],["n","ing"],["p","ris"],["w","ide"],["ĠB","on"],["ĠF","alls"],["oc","ated"],["ĠAl","so"],["Ġsil","ver"],["T","C"],["m","outh"],["v","is"],["y","t"],["Ġ","!"],["Ġ","rom"],["an","th"],["al","ing"],["Ġf","oc"],["ĠC","ricket"],["Ġd","iss"],["ĠR","and"],["Ġl","ove"],["ĠJ","ose"],["os","l"],["ast","y"],["ĠY","ang"],["Ġcomp","uter"],["ĠSp","orts"],["Ġcont","ract"],["ĠBl","u"],["Ġman","uf"],["ĠNor","man"],["Ġsett","lers"],["Ġ187","0"],["ĠJos","h"],["Ġext","ended"],["ĠMiss","ouri"],["Ġwin","ter"],["Ġbusiness","man"],["ĠKore","a"],["Ġanc","est"],["ĠCard","inal"],["ĠVen","ice"],["ĠEnter","tain"],["ĠMahar","ashtra"],["Ġmanuf","act"],["Ġd","ev"],["Ġcon","cept"],["ĠAr","n"],["ĠSw","iss"],["air","s"],["Ġinv","olved"],["ĠAnth","ony"],["ĠStef","an"],["N","A"],["c","ent"],["c","op"],["in","y"],["Ġc","ities"],["Ġc","astle"],["ĠS","in"],["ri","x"],["ĠE","c"],["ig","en"],["ian","g"],["ang","hai"],["per","ial"],["rop","h"],["ĠSh","anghai"],["ens","ive"],["Ġ17","4"],["iam","ond"],["Ġrepl","ace"],["ĠGu","y"],["ĠThom","pson"],["Ġ186","4"],["Ġinv","as"],["Ġtransl","ated"],["Ġide","a"],["Ġfict","ion"],["Ġparliament","ary"],["Ġseg","ment"],["ĠProfess","or"],["Ġwat","ers"],["Ġw","ood"],["Ġm","outh"],["Ġst","ay"],["ĠSt","an"],["ĠU","p"],["Ġhe","re"],["ĠHe","ad"],["ver","t"],["ĠCharl","otte"],["ĠMa","ur"],["Ġrecogn","ized"],["i","ri"],["Ġ","esp"],["Ġt","rib"],["al","em"],["re","b"],["Ġm","ine"],["ĠN","ether"],["em","an"],["im","al"],["ĠK","arn"],["rop","ical"],["Ġ16","4"],["Ġmod","els"],["lev","ard"],["Ġhig","her"],["Ġsym","bol"],["ĠJer","us"],["Ġlib","rary"],["ĠEntertain","ment"],["b","s"],["o","id"],["Ġb","attle"],["ĠH","y"],["Ġch","ief"],["iz","es"],["ĠPro","t"],["Ġann","ual"],["Ġland","sc"],["Ġevent","ually"],["Ġpr","inted"],["Ġlow","est"],["Ġconsist","ed"],["Ġimmedi","ately"],["j","amin"],["m","et"],["Ġa","st"],["is","a"],["Ġw","ing"],["Ġf","le"],["Ġc","ool"],["Ġc","itiz"],["ĠS","ym"],["ĠA","y"],["Ġd","ate"],["Ġd","eter"],["am","o"],["ĠR","om"],["ĠH","amb"],["ĠD","ah"],["ĠN","Y"],["ĠW","or"],["oun","ter"],["ĠV","a"],["ran","ge"],["ak","ing"],["ĠAl","an"],["ĠLe","ban"],["Ġnew","s"],["Ġreg","ions"],["Ġstud","ies"],["Ġ192","3"],["Ġ192","6"],["ĠHar","ris"],["Ġtrad","ition"],["Ġmon","ey"],["ĠEm","peror"],["Ġ185","0"],["ret","t"],["ĠSe","attle"],["Ġappro","ved"],["ĠBen","jamin"],["s","k"],["it","ch"],["Ġwith","out"],["os","en"],["ric","ult"],["Ġpl","at"],["Ġr","acing"],["te","en"],["Ġsc","ript"],["Ġri","val"],["ĠAd","d"],["Ġrel","ated"],["Ġcomple","te"],["Ġelect","ronic"],["Ġdeg","ree"],["Ġconfir","med"],["b","e"],["f","ort"],["f","ather"],["r","ast"],["z","i"],["Ġ","ordered"],["in","et"],["ed","s"],["Ġw","ords"],["re","ll"],["Ġf","all"],["Ġc","ateg"],["ĠC","el"],["ĠC","ork"],["ĠC","EO"],["ĠM","idd"],["ĠP","ra"],["ĠH","end"],["ĠL","anc"],["ĠL","ife"],["em","s"],["est","ic"],["Ġcom","ic"],["Ġpl","ant"],["te","enth"],["und","a"],["Ġsc","reen"],["ĠBro","ther"],["ĠPr","inc"],["ĠHal","if"],["Ġmechan","ical"],["Ġtex","t"],["ĠWat","son"],["Ġbeh","ind"],["Ġcert","ain"],["ĠBuccin","idae"],["Ġentrepren","eur"],["b","urn"],["Ġs","ociety"],["ĠS","ad"],["Ġh","all"],["ĠH","ist"],["ĠL","yn"],["um","ed"],["ĠCh","ap"],["Ġper","fect"],["Ġrele","ase"],["Ġown","er"],["Ġam","b"],["Ġbas","eball"],["ĠMed","ia"],["ĠTim","othy"],["Ġtrain","ing"],["L","A"],["i","en"],["Ġw","arm"],["ar","ia"],["Ġs","ens"],["Ġc","rim"],["ĠT","os"],["ĠB","ase"],["os","m"],["Ġcom","e"],["Ġle","aving"],["Ġsh","ared"],["ĠSc","he"],["anc","y"],["Ġ193","3"],["ĠMc","K"],["led","ge"],["ĠGl","ou"],["Ġ187","1"],["Ġ181","4"],["Ġback","ground"],["Ġweek","ly"],["Ġfig","ure"],["Ġsem","i"],["Ġhon","or"],["ĠBru","ce"],["v","els"],["ĠT","urn"],["az","a"],["Ġall","ows"],["Ġsub","sid"],["Ġdep","uty"],["Ġpain","ted"],["ĠCarol","ine"],["b","olic"],["c","ow"],["n","ia"],["at","on"],["ĠC","ab"],["el","ia"],["st","ream"],["ĠD","ur"],["ag","an"],["ĠO","g"],["Ġst","ep"],["if","y"],["ab","ad"],["ens","ed"],["Ġac","adem"],["Ġlong","er"],["ĠMor","gan"],["ĠFrank","lin"],["ĠGh","ana"],["ĠMos","cow"],["olid","ated"],["ĠMalays","ia"],["Ä","ģ"],["Ġa","ff"],["is","her"],["Ġw","ounded"],["Ġm","er"],["Ġd","iocese"],["Ġj","un"],["ock","s"],["ĠEx","ecutive"],["Ġrest","ored"],["ript","ion"],["Ġgl","obal"],["i","est"],["s","a"],["y","o"],["Ġ","ess"],["Ġa","chiev"],["ĠS","ut"],["ĠT","ak"],["Ġp","ers"],["ĠH","orn"],["ĠL","ang"],["ĠG","a"],["id","o"],["ac","ity"],["Ġg","old"],["ov","iÄĩ"],["ip","l"],["Ġfound","er"],["Ġ194","9"],["Ġ191","6"],["ank","s"],["oth","ing"],["Ġ190","7"],["Ġdep","art"],["Ġequ","ival"],["Ġrad","ical"],["Ġval","ue"],["Ġfactor","s"],["ĠSqu","adron"],["Ġknow","ledge"],["ĠVi","enna"],["ĠLith","u"],["ĠJerus","alem"],["Ġt","ried"],["is","p"],["om","ial"],["ut","ure"],["ĠO","ffic"],["Ġch","all"],["Ġcont","ribut"],["Ġform","al"],["Ġsc","ience"],["Ġmost","ly"],["Ġorgan","ized"],["writ","er"],["Ġnar","row"],["cep","ted"],["a","ur"],["d","ie"],["or","ado"],["Ġc","ut"],["ĠS","ean"],["ĠT","og"],["ro","t"],["ĠB","art"],["ĠB","urn"],["Ġd","at"],["ĠP","BA"],["ĠL","ud"],["ĠN","azi"],["ĠG","riff"],["ĠK","ad"],["ĠO","il"],["ast","ic"],["ge","bra"],["Ġr","ate"],["Ġcan","cer"],["ĠIs","lam"],["ĠEd","u"],["Ġoff","ers"],["Ġev","al"],["Ġrepresent","ative"],["iev","al"],["Ġorgan","ization"],["ĠSen","ator"],["ĠOt","t"],["ĠAlbert","a"],["ĠEr","n"],["Ġgirl","s"],["Ġperforman","ce"],["ĠNC","AA"],["ĠEston","ia"],["Ġdeter","m"],["1","0"],["Ġw","hel"],["Ġm","ach"],["ĠL","ok"],["ĠE","ag"],["Ġth","ough"],["Ġst","able"],["Ġpl","ants"],["Ġpart","ner"],["Ġcerem","ony"],["ĠArk","ansas"],["l","ike"],["ĠC","ruz"],["ĠA","M"],["ĠA","uck"],["ĠR","ugby"],["ĠD","ave"],["ĠG","ab"],["ĠW","right"],["im","a"],["Ġst","ories"],["Ġr","ule"],["Ġ6","4"],["ĠLe","on"],["Ġte","hsil"],["Ġ7","0"],["Ġres","igned"],["ĠCol","orado"],["Ġ192","9"],["Ġsub","sequ"],["ĠDav","is"],["Ġthere","fore"],["Ġrem","aining"],["ĠTe","chn"],["Ġmed","ical"],["ĠMan","or"],["ĠBh","opal"],["Ġcar","ried"],["Ġocc","as"],["ĠNic","ol"],["Ġimmig","rants"],["ĠRid","ge"],["Ġcou","ple"],["ĠAuck","land"],["b","ul"],["an","u"],["in","ental"],["is","er"],["ar","ily"],["Ġm","ust"],["ĠD","od"],["ĠF","ed"],["ĠF","le"],["ĠF","ul"],["Ġst","ri"],["Ġv","o"],["ire","ment"],["ach","ing"],["Ġele","v"],["ĠAs","ian"],["Ġwork","ing"],["Ġprov","ides"],["ĠBar","ry"],["Ġnear","est"],["ĠAm","ong"],["ĠHar","ry"],["Ġdec","ided"],["ĠCarl","os"],["T","A"],["j","ab"],["o","en"],["r","ill"],["s","et"],["ar","p"],["Ġs","ailed"],["ĠS","ub"],["Ġp","aper"],["ĠM","ain"],["ĠM","ack"],["Ġm","y"],["ĠB","rist"],["ĠB","omb"],["ĠP","A"],["ĠP","ear"],["Ġl","oss"],["ĠN","athan"],["ĠW","ell"],["Ġv","an"],["ab","et"],["Ġr","at"],["eral","d"],["Ġag","re"],["ph","abet"],["Ġ193","1"],["ĠAir","lines"],["Ġ188","0"],["Ġ188","3"],["Ġmed","ieval"],["ĠMan","uel"],["Ġtour","ed"],["Ġclaim","s"],["Ġanc","ient"],["ĠPun","jab"],["ĠDou","gl"],["Ġobs","erved"],["ĠDerby","shire"],["ĠNether","lands"],["ĠDougl","as"],["Ġ","et"],["ic","ed"],["ĠA","uthor"],["ion","e"],["ĠB","erg"],["Ġd","ance"],["Ġl","ittle"],["ist","ance"],["ag","on"],["Ġhe","art"],["ant","e"],["Ġde","al"],["Ġle","aves"],["Ġsup","ply"],["Ġattack","ed"],["Ġsound","track"],["Ġdrum","mer"],["Ġliter","ature"],["Ġeth","nic"],["Ġb","ind"],["Ġf","av"],["ĠC","ze"],["Ġm","ax"],["ĠI","ra"],["ĠR","ap"],["ĠR","ick"],["Ġl","ic"],["ĠJ","es"],["ĠN","A"],["ĠN","eg"],["ĠW","inn"],["im","ens"],["Ġv","irt"],["Ġsp","orts"],["hen","d"],["Ġseason","s"],["Ġmov","ie"],["enc","ia"],["Ġsing","ers"],["umb","ers"],["Ġ186","0"],["Ġpain","ting"],["ĠBer","k"],["ĠBer","asia"],["opp","ing"],["Ġfict","ional"],["Ġrul","ed"],["ĠWind","ows"],["ĠHung","ary"],["Ġdocument","ary"],["ĠNichol","as"],["ĠSomers","et"],["Ġinher","ited"],["Ġdat","ab"],["ĠCze","ch"],["r","ass"],["w","ing"],["in","ary"],["Ġs","ug"],["Ġch","ap"],["Ġex","c"],["Ġmar","ked"],["Ġres","ults"],["Ġoper","ations"],["Ġvis","ual"],["ĠSerb","ian"],["Ġparticular","ly"],["1","6"],["3","9"],["e","ated"],["g","ers"],["ic","ia"],["ro","c"],["ĠB","og"],["ĠR","io"],["ĠD","a"],["ĠD","rew"],["ad","es"],["ĠN","ott"],["ay","an"],["ov","ed"],["ĠSp","rings"],["ann","e"],["Ġim","plement"],["che","ll"],["ĠPark","er"],["eng","ers"],["Ġserv","e"],["Ġdec","ision"],["ĠReg","ional"],["ĠMe","h"],["Ġ181","8"],["ĠGeorg","ian"],["Ġcour","t"],["ĠKenn","edy"],["ĠArmen","ia"],["ĠProdu","ctions"],["Ġast","ron"],["b","u"],["s","s"],["in","ated"],["Ġc","ode"],["ĠB","all"],["ĠP","ower"],["Ġl","os"],["ad","s"],["ĠG","ul"],["ish","ing"],["ĠTh","ail"],["ĠSp","ec"],["Ġreg","istered"],["Ġeconom","ic"],["ĠBaron","et"],["ĠJohann","es"],["Ġwhel","ks"],["ĠThail","and"],["i","ation"],["j","un"],["k","ing"],["m","ae"],["or","ph"],["Ġs","ang"],["at","o"],["at","aka"],["ĠT","it"],["ĠC","hel"],["ro","it"],["ĠA","ires"],["Ġp","an"],["el","d"],["ĠThe","od"],["ĠD","ak"],["ĠD","ennis"],["ĠJ","ag"],["ĠN","ow"],["ĠG","ran"],["ĠG","ib"],["ĠE","oac"],["ut","t"],["ĠK","u"],["Ġun","in"],["ĠUn","til"],["Ġro","utes"],["ĠZ","em"],["anc","es"],["Ġdefe","at"],["umb","ent"],["Ġlead","ing"],["ĠWar","ner"],["Ġ186","6"],["Ġtrad","e"],["ĠLu","x"],["Ġprot","ect"],["Ġbi","ography"],["Ġtak","es"],["Ġmult","ip"],["Ġhous","es"],["ĠUk","rain"],["ĠDet","roit"],["ĠCyp","rus"],["ĠOffic","er"],["ĠEoac","mae"],["m","es"],["Ġb","ig"],["ĠT","em"],["Ġh","om"],["ĠL","t"],["ĠU","g"],["Ġhigh","ly"],["ck","er"],["ĠPat","ri"],["mit","ted"],["h","olm"],["j","i"],["w","ise"],["er","i"],["or","es"],["en","z"],["Ġs","aw"],["Ġb","ot"],["ĠC","ost"],["ĠM","ol"],["ĠM","ik"],["ĠM","ans"],["ou","ch"],["ĠB","eng"],["ĠP","il"],["ĠD","h"],["un","e"],["ia","b"],["ĠIn","n"],["ĠK","er"],["ĠO","pen"],["ber","to"],["ĠV","inc"],["ĠCh","amp"],["if","orm"],["ud","i"],["ell","er"],["Ġcomp","ared"],["ĠCo","oper"],["Ġvers","ions"],["Ġsett","lement"],["Ġfe","ature"],["ĠPe","ople"],["Ġgrand","father"],["Ġeffect","ive"],["ĠII","I"],["ĠMill","er"],["ĠPortug","al"],["ĠBou","levard"],["Ġfig","ures"],["onn","ie"],["ĠHaw","ai"],["ĠAlf","red"],["ograp","her"],["Ġneighbor","hood"],["c","on"],["Ġ","iron"],["al","ar"],["ic","ate"],["ĠA","pp"],["il","ities"],["Ġh","our"],["ĠH","ospital"],["ĠD","anny"],["Ġfor","t"],["Ġg","ran"],["Ġun","ion"],["Ġk","il"],["Ġform","ally"],["Ġper","man"],["Ġnorth","western"],["Ġme","an"],["Ġexp","l"],["Ġinj","ured"],["Ġphilos","oph"],["1","7"],["g","art"],["Ġ","esc"],["Ġm","ake"],["ĠH","ind"],["om","ys"],["ĠL","ott"],["ĠN","ote"],["ow","ell"],["ĠK","an"],["ec","ially"],["ag","a"],["Ġv","ert"],["ĠV","iv"],["ie","u"],["Ġ3","4"],["az","ar"],["Ġed","ge"],["ys","is"],["Ġtra","ins"],["erv","oir"],["ific","ant"],["ĠChrist","opher"],["ĠAb","d"],["Ġvis","it"],["ĠDon","ald"],["Ġconnect","s"],["Ġval","ley"],["ĠLat","v"],["Ġking","dom"],["Ġdebut","ed"],["ĠVeg","as"],["ĠTai","wan"],["Ġtreat","ment"],["ĠHeb","rew"],["Ġo","p"],["Ġs","elf"],["ĠS","ystem"],["ĠT","est"],["ĠT","op"],["ĠR","at"],["ĠV","I"],["ĠU","pper"],["Ġex","clus"],["Ġapp","lied"],["ĠAmeric","ans"],["Ġper","form"],["Ġ195","9"],["Ġdesc","ent"],["Ġpo","or"],["Ġactor","s"],["ĠLuc","as"],["ĠSecond","ary"],["I","D"],["v","iron"],["Ġ","ice"],["Ġa","p"],["or","ia"],["Ġw","ord"],["re","z"],["ĠS","ong"],["ĠT","ang"],["ĠM","Ã¼"],["Ġd","ial"],["ĠI","dah"],["Ġh","ill"],["ĠP","it"],["ĠP","ad"],["ĠP","omer"],["ĠH","old"],["ĠD","is"],["ĠD","omin"],["ĠJ","i"],["ĠO","d"],["Ġst","op"],["ĠV","el"],["Ġan","g"],["Ġ3","00"],["Ġar","rest"],["se","ud"],["Ġj","azz"],["ĠFran","ces"],["Ġ194","1"],["ult","an"],["ett","y"],["ne","z"],["rid","ae"],["ĠAm","az"],["Ġ188","1"],["Ġ189","2"],["Ġpolit","ics"],["Ġam","ount"],["ĠBelg","ian"],["Ġposs","ib"],["Ġproduct","s"],["ĠBern","ard"],["ĠStock","holm"],["stan","bul"],["Ġesp","ecially"],["ĠAuthor","ity"],["ĠIdah","o"],["l","ay"],["Ġw","he"],["ĠR","ound"],["Ġre","fer"],["ac","c"],["Ġst","reet"],["ĠCh","annel"],["ĠTh","ird"],["ĠBl","ake"],["Ġcol","or"],["Ġacc","ess"],["Ġinflu","ences"],["Ġconc","ert"],["Ġclaim","ed"],["l","ow"],["in","er"],["on","ed"],["Ġs","om"],["Ġh","ockey"],["st","anding"],["ĠL","ev"],["ĠL","uck"],["ĠF","our"],["ĠW","orth"],["ĠE","P"],["av","ier"],["Ġsp","ect"],["ok","er"],["ĠSp","enc"],["Ġnew","ly"],["Ġbo","y"],["Ġ193","9"],["Ġ190","9"],["ĠSant","os"],["ĠPe","ak"],["ĠArm","str"],["ĠBu","en"],["Ġcomb","ination"],["ĠBow","l"],["ĠSqu","are"],["Ġdra","wn"],["Ġbeg","inning"],["ĠOper","a"],["Ġarran","ged"],["Ġdom","estic"],["Ġspons","ored"],["Ġunin","habited"],["ĠSpenc","er"],["ĠArmstr","ong"],["h","o"],["Ġw","ine"],["Ġc","ouncil"],["ĠC","y"],["Ġp","rison"],["ĠB","ack"],["ĠI","an"],["ĠO","ver"],["ĠU","r"],["ĠAust","in"],["ĠAust","rian"],["ĠEl","li"],["Ġass","istant"],["Ġcap","tain"],["ĠCam","er"],["Ġsug","gest"],["g","ow"],["x","t"],["Ġt","enth"],["in","ist"],["Ġb","ird"],["Ġf","olk"],["ĠS","yn"],["ĠC","ed"],["ĠM","en"],["ĠB","rent"],["ent","on"],["ĠP","on"],["ri","ver"],["ĠN","ep"],["ĠF","ish"],["ch","i"],["ĠK","im"],["Ġde","ad"],["Ġex","ecutive"],["Ġpart","n"],["Ġcl","imate"],["aj","i"],["ict","ures"],["Ġcomple","t"],["ĠWar","s"],["ĠAb","u"],["Ġdec","l"],["Ġne","u"],["Ġfun","ctions"],["ĠMil","ton"],["ĠMer","cer"],["Ġindepend","ence"],["Ġsu","ff"],["Ġfinanc","ial"],["Ġmeas","ure"],["ĠTok","yo"],["Ġterrit","ory"],["ĠNev","ada"],["Ġreason","s"],["ĠViet","nam"],["ĠKarn","ataka"],["1","1"],["p","rod"],["r","ate"],["u","ries"],["Ã","£"],["Ġ","ens"],["Ġb","ran"],["Ġf","arm"],["Ġf","uture"],["ic","ine"],["Ġc","ab"],["ell","ig"],["Ġwho","le"],["ren","g"],["Ġind","ex"],["Ġnear","by"],["ĠMon","roe"],["2","5"],["b","on"],["k","ee"],["l","ie"],["Ġs","ay"],["es","a"],["Ġf","act"],["ĠT","ob"],["ĠT","aun"],["ĠM","aine"],["ĠB","ec"],["ĠB","ert"],["Ġd","ise"],["Ġh","am"],["ĠR","ot"],["ĠR","af"],["ĠP","uer"],["ĠH","ur"],["ĠH","ugh"],["et","on"],["ĠG","ray"],["ĠK","il"],["ĠO","rig"],["ĠSt","u"],["ĠCh","i"],["ĠU","F"],["ap","es"],["end","ar"],["ĠY","u"],["ĠLe","o"],["Ġar","riv"],["Ġalbum","s"],["ĠCar","m"],["ĠCar","r"],["ĠSw","an"],["Ġlead","ership"],["Ġcap","acity"],["ĠEm","ily"],["ĠProv","inc"],["ha","o"],["Ġhost","ed"],["Ġwid","ow"],["Ġwid","ely"],["Ġsour","ce"],["mir","al"],["ĠGlas","gow"],["ĠIra","q"],["ĠLatv","ia"],["ĠBuen","os"],["s","ite"],["it","ter"],["ĠS","el"],["Ġp","ul"],["Ġm","ic"],["ĠB","est"],["ul","ated"],["Ġv","erb"],["ran","ce"],["Ġpl","anned"],["Ġch","ampion"],["Ġele","ctor"],["Ġdef","in"],["Ġpar","am"],["ĠKen","ya"],["Ġallow","ed"],["m","und"],["m","ingham"],["v","an"],["Ġa","ffect"],["is","ions"],["Ġb","orders"],["Ġc","ard"],["ĠT","anz"],["Ġp","ur"],["Ġp","urch"],["ĠR","ing"],["ĠR","ac"],["ri","f"],["ur","ches"],["ĠF","ree"],["un","te"],["ia","go"],["ot","i"],["Ġg","raph"],["ĠO","ri"],["ĠSt","and"],["ĠV","ar"],["av","an"],["ight","ly"],["ĠKing","ston"],["Ġ185","6"],["ĠLou","ise"],["Ġred","uced"],["ĠSu","ff"],["Ġgl","ass"],["Ġcolle","ction"],["olution","ary"],["Ġge","omet"],["ĠSab","ha"],["ĠBir","mingham"],["Ġsecret","ary"],["Ġpress","ure"],["ĠWy","oming"],["ĠBulgar","ia"],["Ġdiss","olved"],["ĠHalif","ax"],["ĠLux","emb"],["ĠTanz","ania"],["S","T"],["a","ult"],["i","enced"],["Ġs","uit"],["ĠC","D"],["Ġm","id"],["ĠE","p"],["oc","cer"],["av","i"],["Ġ5","5"],["att","al"],["Ã©","n"],["Ġprogram","s"],["Ġmerg","er"],["ĠGian","ts"],["Ġneg","ative"],["Ġprobab","ly"],["b","ane"],["u","is"],["w","ig"],["Ġ","er"],["as","ka"],["ĠT","ro"],["ĠC","ul"],["ĠC","ort"],["ĠM","ason"],["ĠM","und"],["ĠB","udd"],["ĠP","ur"],["ĠH","op"],["ol","o"],["ĠF","all"],["ĠK","ate"],["ĠK","rist"],["ov","an"],["Ġal","gebra"],["ĠCh","ar"],["Ġch","osen"],["Ġ4","3"],["ĠSh","ort"],["ph","is"],["Ġcur","ve"],["Ġrel","ations"],["Ġac","cepted"],["Ġmin","or"],["Ġen","viron"],["ĠMem","phis"],["ĠWin","ter"],["ĠJon","athan"],["fect","ure"],["Ġident","ified"],["ĠGil","bert"],["ĠSerb","ia"],["Äį","ÃŃn"],["ĠTod","ay"],["Ġapplic","ations"],["Ġmanusc","ript"],["ĠHot","el"],["Ġresident","ial"],["ĠLab","our"],["ĠBris","bane"],["Ġinvas","ion"],["Ġmax","imum"],["Ġdatab","ases"],["b","ed"],["s","el"],["or","por"],["is","ch"],["en","ge"],["ĠR","ose"],["Ġfor","e"],["uc","cess"],["ous","ly"],["Ġad","apt"],["ann","ah"],["Ġcomm","ander"],["yn","omial"],["Ġclass","es"],["Ġclub","s"],["Ġexper","ience"],["ĠBob","by"],["Ġbeg","ins"],["Ġinstit","utions"],["Ġlet","ter"],["ĠWel","sh"],["Ġsubsid","i"],["Ġmach","ine"],["g","ins"],["l","ake"],["p","ire"],["in","ton"],["on","al"],["is","abeth"],["al","y"],["Ġf","il"],["ĠC","ai"],["Ġp","seud"],["ĠM","orn"],["ĠM","aced"],["el","and"],["ĠP","ers"],["ĠH","amp"],["om","at"],["ĠG","rim"],["ĠF","I"],["ĠF","al"],["ac","ement"],["ra","cted"],["Ġhe","alth"],["Ġch","ain"],["Ġun","s"],["ĠNew","s"],["ĠMar","s"],["ru","ction"],["ob","ile"],["Ġbec","omes"],["ĠFran","z"],["oy","a"],["ron","e"],["Ġ192","5"],["Ġbl","ood"],["Ġ186","5"],["ĠMin","ne"],["rol","l"],["ĠBas","eball"],["Ġyoun","gest"],["Ġnov","els"],["Ġequ","ation"],["Ġworld","wide"],["Ġstr","ateg"],["Ġsuccessful","ly"],["ĠCount","ry"],["ĠZh","u"],["Ġcondu","ctor"],["ĠPrem","ier"],["ĠColomb","ia"],["ĠNott","ingham"],["Ġbot","an"],["ĠNep","al"],["Ġbran","ches"],["Ġfore","ign"],["a","ction"],["f","ound"],["u","ation"],["Ġ","#"],["Ġf","estival"],["Ġl","if"],["ĠN","ot"],["ĠW","he"],["ra","w"],["um","n"],["od","a"],["od","ies"],["Ġr","ather"],["Ġret","irement"],["ĠAb","b"],["Ġold","er"],["Ġclass","ified"],["ĠOl","iv"],["Ġsister","s"],["ĠChampionship","s"],["Ġcaus","ed"],["b","a"],["h","old"],["h","att"],["k","h"],["k","ov"],["m","ith"],["p","ool"],["s","al"],["x","i"],["ĠS","ull"],["ĠT","erry"],["Ġm","akes"],["ĠB","an"],["ĠR","ic"],["Ġl","ists"],["Ġe","y"],["ot","o"],["ot","ic"],["ag","ar"],["ĠV","id"],["Ġcon","ver"],["Ġhe","ard"],["ak","k"],["Ġch","o"],["Ġr","ac"],["Ġr","ugby"],["qu","is"],["inal","s"],["Ġ4","5"],["Ġwrit","ing"],["aj","a"],["Ġpol","ynomial"],["yl","l"],["Ġtrad","itions"],["af","s"],["ĠBr","end"],["Ġpain","t"],["ĠSim","pson"],["ĠBh","ar"],["sc","ar"],["ĠLu","is"],["Ġconc","ent"],["ĠTal","uka"],["Ġcond","itions"],["Ġceleb","rated"],["ĠAar","on"],["Ġprinc","ip"],["ĠLeban","on"],["Ġlic","ensed"],["ĠPuer","to"],["Ġt","et"],["Ġp","ath"],["Ġd","iag"],["ĠN","i"],["ric","al"],["Ġk","in"],["Ġro","ugh"],["ash","i"],["Ġrecord","s"],["Ġra","in"],["Ġmanag","ement"],["ĠÅ","ł"],["ĠArn","old"],["ĠLt","d"],["Ã£","o"],["9","0"],["d","ale"],["s","ey"],["u","ct"],["ed","o"],["Ġc","ounter"],["ĠS","aw"],["ĠC","her"],["ĠM","ember"],["ou","x"],["Ġm","yst"],["le","as"],["ĠI","ce"],["Ġh","ier"],["ĠL","is"],["Ġl","iving"],["ĠJ","a"],["Ġn","umbers"],["ĠK","ash"],["Ġth","ir"],["ill","ed"],["ill","ery"],["Ġcon","son"],["Ġan","arch"],["Ġun","its"],["inal","d"],["ph","y"],["Ġcont","ent"],["Ġ5","00"],["Ġ15","5"],["ĠHen","ri"],["ĠLa","ur"],["Ġprofessional","ly"],["Ġleg","al"],["rie","f"],["ĠBy","ron"],["Ġactiv","ist"],["Ã¢","r"],["Ġiss","ued"],["ĠBet","ween"],["ĠCamb","ridge"],["Ġrecomm","ended"],["Ġacadem","ic"],["ĠTaun","ton"],["ĠSuff","olk"],["Ġl","ink"],["ĠN","etwork"],["ĠE","le"],["Ġpl","aces"],["Ġch","ore"],["Ġri","d"],["uth","ors"],["ĠPort","land"],["Ġepis","odes"],["Ġsw","im"],["Ġaccomp","an"],["2","3"],["T","V"],["o","que"],["ĠT","ab"],["ĠT","imes"],["ĠC","inc"],["ĠA","D"],["il","o"],["ou","st"],["ĠR","em"],["ĠR","eb"],["ĠH","on"],["ĠJ","en"],["ĠJ","ama"],["ĠF","ried"],["ĠW","ag"],["rom","agnetic"],["Ġst","ore"],["ang","ar"],["ĠLe","afs"],["Ġits","elf"],["Ġmusic","ians"],["Ġ191","3"],["inn","ati"],["Ġ189","9"],["riv","e"],["Ġent","ry"],["Ġmet","ers"],["ĠLa","ura"],["Ġalong","side"],["Ġpos","itive"],["Ġ180","5"],["ĠHun","ter"],["ĠHun","ts"],["Ġeigh","th"],["ĠUnivers","al"],["ĠCost","a"],["Ġarrest","ed"],["ĠCinc","innati"],["p","ro"],["Ġ","ille"],["re","l"],["ĠS","ultan"],["ĠT","s"],["ĠT","ig"],["Ġp","ron"],["ĠM","aster"],["ĠB","uck"],["ĠI","stanbul"],["ĠD","rum"],["Ġre","ign"],["ĠK","am"],["Ġan","ti"],["iz","ations"],["Ġcl","imb"],["Ġmov","e"],["ious","ly"],["Ġdec","or"],["Ġfe","et"],["Ã¼","r"],["Ġmat","rix"],["Ġelect","romagnetic"],["Ġref","used"],["Ġperforman","ces"],["Ġdyn","asty"],["Ġille","g"],["I","T"],["h","ard"],["z","ant"],["and","y"],["Ġs","kin"],["Ġs","ession"],["it","led"],["ĠS","out"],["ĠT","an"],["Ġp","ut"],["Ġm","agnetic"],["ĠB","ull"],["ĠR","u"],["ĠR","ow"],["ĠR","ico"],["ĠH","unt"],["ĠJ","ava"],["Ġre","view"],["ter","son"],["ter","bury"],["ow","ers"],["ly","ing"],["ac","ey"],["ĠK","ol"],["Ġst","one"],["oc","he"],["Ġ3","8"],["Ġrep","orts"],["Ġ4","2"],["Ġcont","rast"],["ĠTown","s"],["ĠCan","terbury"],["Ġcons","olidated"],["Ġrel","atively"],["ĠPar","agu"],["Ġ11","7"],["ĠComm","on"],["rat","or"],["ĠTe","le"],["ipp","ed"],["hel","m"],["ĠMad","rid"],["ĠPat","terson"],["Ġinc","umbent"],["ĠFlor","ence"],["Ġem","igrated"],["cept","ion"],["ĠGar","cia"],["ĠMur","phy"],["ĠBy","zant"],["ĠBelg","rade"],["Ġsign","ificant"],["ĠSom","alia"],["Ġopp","onent"],["Ġkey","bo"],["ĠDen","mark"],["rip","ts"],["ĠBenn","ett"],["Ġinvest","ig"],["ĠArmen","ian"],["ĠHav","en"],["ĠRobin","son"],["Ġagre","ement"],["ĠDis","ney"],["ĠHamp","shire"],["ĠB","at"],["ith","m"],["ul","ly"],["Ġar","m"],["Ġed","ited"],["ĠBe","at"],["Ġoper","ation"],["Ġass","ociation"],["ĠGreg","ory"],["ricult","ural"],["ĠTurn","er"],["Ġvert","ical"],["A","meric"],["D","on"],["R","C"],["g","ale"],["l","ington"],["n","o"],["Ã","´"],["he","im"],["Ġs","us"],["Ġb","rain"],["Ġc","ry"],["ĠC","ir"],["Ġp","ra"],["ĠM","ang"],["ĠB","ot"],["am","ic"],["ĠI","g"],["ĠH","as"],["ol","ph"],["ĠL","ions"],["ĠL","ane"],["Ġl","atter"],["Ġn","iece"],["ĠF","ras"],["iv","an"],["ĠW","ork"],["um","ents"],["od","ia"],["Ġr","ar"],["Ġcomp","ar"],["ĠZ","hao"],["Ġtrans","form"],["erm","o"],["ĠAf","gh"],["Ġoper","a"],["Ġ189","0"],["Ġ189","5"],["Ġ189","8"],["Ġthem","e"],["ĠOr","chestra"],["ĠRoy","als"],["ĠSu","ce"],["Ġpass","ed"],["Ġactiv","ities"],["ĠJul","ian"],["ĠWood","s"],["ĠAz","erb"],["ĠLuc","y"],["ĠSum","mer"],["Ġpark","s"],["Ġturn","ed"],["Ġliter","ary"],["ĠMit","chell"],["Ġsour","ces"],["Ġartic","le"],["ĠNash","ville"],["Ġmurder","ed"],["Ġaud","io"],["Ġvirt","ual"],["ĠZem","gale"],["ĠUkrain","ian"],["ĠSull","ivan"],["ĠAzerb","ai"],["Ġb","ad"],["Ġd","ro"],["am","an"],["ol","ished"],["ĠD","ig"],["ress","ive"],["ĠSp","e"],["Ġcent","uries"],["ĠGre","ater"],["Ġprim","e"],["Ġterm","s"],["Ġexper","im"],["Ġcomb","ined"],["ĠKir","k"],["Ġenviron","ment"],["orpor","ated"],["m","as"],["o","i"],["as","m"],["Ġc","rew"],["ĠS","ey"],["ĠT","ib"],["ĠC","aval"],["ĠM","ach"],["ĠI","B"],["ĠL","ike"],["ow","o"],["em","pt"],["ĠK","umar"],["Ġas","p"],["ĠO","scar"],["os","h"],["ĠHe","alth"],["ine","a"],["igh","ton"],["ĠLe","ices"],["ĠAr","ts"],["ĠRo","x"],["gh","ar"],["Ġcl","in"],["ĠSp","art"],["clud","ed"],["Ġreg","iment"],["Ġres","istance"],["Ġchild","hood"],["Ġappear","ance"],["Ġ186","1"],["Ġ189","7"],["Ġsol","ution"],["ĠRob","b"],["ĠSu","z"],["ĠPal","ghar"],["Ġattack","s"],["Ġ182","8"],["Ġsout","heastern"],["Ġadminist","ration"],["Ã¤","r"],["ĠEs","sex"],["Ġsen","ior"],["ĠTam","il"],["ĠÂ","°"],["ĠConstant","in"],["Ġhyper","bolic"],["ĠInf","antry"],["Ġplat","form"],["ĠGul","f"],["ĠUg","anda"],["ĠCamer","on"],["ĠLuxemb","ourg"],["ĠMinne","apolis"],["ĠByzant","ine"],["ĠLeices","ter"],["on","ian"],["am","ily"],["el","ine"],["ĠD","ean"],["ĠN","ord"],["id","er"],["Ġg","rass"],["oc","als"],["ap","h"],["Ġrec","ru"],["Ġdesc","end"],["Ġsnail","s"],["Ġbas","ketball"],["ffic","ient"],["Ġcal","cul"],["Ġz","one"],["Ġdam","aged"],["Americ","an"],["3","7"],["c","ular"],["l","on"],["u","ctor"],["x","ic"],["it","ness"],["Ġb","all"],["Ġc","ost"],["ĠS","ox"],["ĠC","u"],["ĠC","hem"],["ĠM","ond"],["ou","d"],["Ġm","iss"],["ĠB","ath"],["ĠP","ut"],["ĠH","ed"],["ĠL","og"],["Ġre","form"],["ur","ation"],["ĠF","A"],["ch","t"],["ĠW","an"],["em","a"],["ag","reb"],["oc","ol"],["Ġcom","edy"],["qu","et"],["ĠY","ug"],["ĠMar","ian"],["Ġ6","5"],["Ġte","aching"],["ĠZ","agreb"],["ĠCan","al"],["Ġunder","ground"],["au","x"],["Ġtrans","fer"],["ĠGu","ad"],["Ġpol","y"],["Ġph","ase"],["Ġ190","2"],["Ġ186","9"],["Ġband","s"],["Ġ185","1"],["Ġair","line"],["ĠSe","ason"],["Ġvar","iable"],["Ġprodu","ce"],["ĠBo","ok"],["ĠHol","y"],["Ġmarket","ed"],["ĠMic","hel"],["Ġindust","ry"],["ĠAmb","assador"],["ĠMort","on"],["ĠMun","ich"],["Ġnomin","ated"],["ĠPed","ro"],["Ġnumer","ous"],["Ġpri","or"],["ĠBeng","al"],["ĠPit","ts"],["ĠFried","rich"],["ĠAzerbai","jan"],["e","en"],["Å","Ĥ"],["ar","ge"],["Ġb","ra"],["Ġf","ellow"],["Ġp","ool"],["Ġp","iano"],["ĠB","rand"],["Ġh","aving"],["Ġl","it"],["Ġn","ation"],["ĠF","riend"],["Ġg","round"],["est","ed"],["Ġcon","vers"],["we","ight"],["Ġsouth","western"],["ĠCon","ference"],["Ġup","d"],["Ġgen","re"],["Ġdo","ctor"],["Ġfa","ith"],["ĠAndrew","s"],["Ġpower","ful"],["ĠHel","en"],["Ġlearn","ed"],["ĠCroat","ia"],["ĠHawai","i"],["uccess","ful"],["Ġuns","uccessful"],["1","5"],["b","ridge"],["h","ill"],["k","ill"],["v","ing"],["Ġw","edd"],["at","in"],["it","ia"],["Ġc","uis"],["ĠS","is"],["ĠS","ac"],["ĠS","ul"],["ĠS","yr"],["ĠC","urt"],["Ġp","ack"],["Ġm","el"],["ĠB","ass"],["Ġto","o"],["Ġd","ens"],["Ġd","river"],["ĠI","V"],["ĠH","o"],["ĠH","ome"],["ĠD","ue"],["ĠW","ilm"],["ĠE","as"],["ist","a"],["ĠIn","c"],["ec","il"],["ĠSt","ra"],["Ġpro","te"],["ĠV","o"],["ate","ur"],["ub","e"],["Ġpl","ans"],["Ġch","urches"],["Ġsh","r"],["ild","ing"],["ĠSouth","ampton"],["ĠCl","ay"],["ĠCl","ass"],["Ġatt","ribut"],["ĠGu","inea"],["Ġsup","por"],["Ġexp","ected"],["Ġass","embly"],["ĠEm","pire"],["ĠMor","ris"],["Ġdec","ides"],["Ġwee","ks"],["Ġinit","i"],["Ġhelp","ed"],["ĠDev","on"],["ĠCub","an"],["ĠWall","ace"],["ĠJess","e"],["Ġmem","ory"],["Ġmanusc","ripts"],["ĠCroat","ian"],["Ġdomin","ant"],["ĠIslam","ic"],["oust","ic"],["P","I"],["S","A"],["a","ust"],["e","ep"],["n","el"],["Ġt","arg"],["ic","ations"],["ĠB","av"],["Ġh","ope"],["ad","ing"],["ib","ility"],["Ġsc","ra"],["Ġexp","lor"],["Ġdif","f"],["Ġvis","ible"],["Ġcount","ies"],["Ġprogram","me"],["ĠSen","ior"],["Ġcle","ar"],["Ġoccup","ied"],["Ġoppos","ite"],["pris","e"],["Ġgran","ted"],["Ġkil","omet"],["Ġrecru","ited"],["j","oy"],["s","mith"],["or","f"],["Ġs","ung"],["ic","y"],["ĠS","eg"],["ĠC","i"],["ĠC","r"],["Ġp","ati"],["ol","es"],["ĠL","iver"],["ĠL","uke"],["ĠD","iamond"],["ĠJ","erry"],["ĠN","ak"],["ĠN","ancy"],["ĠG","un"],["ĠF","res"],["ĠK","ings"],["ĠO","ut"],["um","es"],["ĠV","ij"],["ĠU","l"],["Ġrep","eated"],["Ġcl","othing"],["Ġj","udge"],["ĠShe","l"],["Ġprov","ide"],["Ġsc","enes"],["Ġret","ained"],["oy","le"],["Ã©","e"],["uk","i"],["Ġ15","6"],["ĠBe","ij"],["Ġqu","est"],["Ġ11","0"],["Ġ186","2"],["ĠOr","land"],["Ġfin","ite"],["Ġpo","em"],["Ġtem","ple"],["Ġ184","6"],["ĠColumb","us"],["Ġactiv","ity"],["Ġresp","ons"],["ĠPan","ama"],["Ġanal","ysis"],["udd","in"],["ĠBre","ton"],["Ġcorrespond","ing"],["ĠGard","en"],["ĠAh","med"],["ĠHolly","wood"],["ĠWes","ley"],["ĠVill","age"],["ĠMidd","les"],["ĠBerk","shire"],["ĠLott","iidae"],["Ġpati","ents"],["ĠBeij","ing"],["g","reg"],["u","ce"],["Ġa","way"],["Ġb","rief"],["Ġc","emetery"],["ĠM","ore"],["Ġd","rama"],["ĠP","ot"],["ĠH","ad"],["Ġl","ie"],["ĠD","uke"],["ri","et"],["ĠJ","al"],["Ġn","ecess"],["ist","ics"],["Ġst","aged"],["Ġst","reng"],["Ġse","x"],["Ġro","c"],["ĠHar","old"],["Ġrem","oved"],["ĠEx","change"],["ĠPrim","ary"],["Ġextrem","ely"],["Ġupd","ated"],["E","E"],["e","astern"],["Ġ","?"],["Ġt","ropical"],["is","i"],["Ġw","inning"],["ar","at"],["en","ing"],["at","em"],["Ġf","ar"],["ĠS","eb"],["ĠC","ob"],["ĠC","row"],["ĠA","BC"],["Ġd","on"],["ĠI","z"],["st","ate"],["ĠL","ah"],["ri","el"],["im","il"],["art","z"],["ĠCh","uck"],["if","er"],["ak","o"],["ong","ol"],["Ġor","che"],["Ġcomp","onent"],["Ġk","g"],["Ġex","ecut"],["Ġ5","7"],["ĠYork","shire"],["ram","er"],["Ġmod","er"],["Ġinter","p"],["ĠChrist","ine"],["Ġdis","app"],["Ã¶","t"],["ĠMo","ore"],["Ġstat","us"],["ĠStev","en"],["arch","y"],["Ġsl","ightly"],["ĠHor","ace"],["Ġproble","m"],["ĠRh","odes"],["ĠHard","y"],["Ġcolon","ial"],["Ġsqu","are"],["ĠSol","om"],["lad","esh"],["ĠBang","ladesh"],["bre","vi"],["Ġearl","iest"],["ĠBrist","ol"],["ĠBomb","ay"],["ĠSpec","ial"],["ĠMans","field"],["ĠHop","kins"],["l","ast"],["Ġt","end"],["ic","ult"],["ĠC","od"],["ĠC","ivil"],["ĠP","y"],["ĠE","qu"],["ĠO","ff"],["Ġv","ocals"],["ĠMar","ine"],["Ġro","w"],["ib","l"],["ĠEn","d"],["Ġag","ent"],["ĠHar","rison"],["Ġint","ellig"],["ĠÃ","ħ"],["Ġeduc","ational"],["Ġav","oid"],["Ġadv","ant"],["ĠPier","re"],["Ġlandsc","ape"],["Ġsubsequ","ently"],["8","2"],["e","k"],["f","eld"],["h","urst"],["i","eth"],["r","m"],["Ġ","x"],["Ġ","rich"],["ed","in"],["Ġin","aug"],["Ġw","all"],["ĠT","rent"],["ĠT","win"],["Ġp","hen"],["ĠM","ey"],["Ġm","ent"],["ĠR","ena"],["ĠP","ont"],["ĠL","em"],["ĠG","im"],["ĠW","i"],["em","en"],["id","ad"],["ut","ional"],["ĠK","o"],["rom","e"],["ĠU","m"],["ĠHe","ights"],["Ġsp","read"],["ok","a"],["Ġy","ards"],["iz","ing"],["Ġsec","ure"],["Ġres","ign"],["ĠEd","uc"],["Ġim","age"],["Ġim","press"],["ĠCl","iff"],["Ġ16","6"],["Ġnear","ly"],["ĠAugust","us"],["ĠNov","a"],["Ġrepl","acement"],["Ġtra","v"],["Ġoffic","es"],["Ġ188","9"],["ĠRobert","son"],["Ġ186","8"],["ĠRich","mond"],["Ġsim","ply"],["Ġgre","ater"],["ĠAg","ass"],["ĠSant","iago"],["ĠLouis","iana"],["ĠÃ","Ĺ"],["Ġpass","engers"],["Ġproject","s"],["rest","ler"],["ĠSuper","st"],["ĠIm","perial"],["ĠCommun","ity"],["ĠIv","an"],["Ġcle","an"],["ĠTy","ler"],["ĠBroad","way"],["Ġtwent","y"],["stad","t"],["ĠTren","ÄįÃŃn"],["rup","t"],["ĠRepresent","atives"],["ĠBjÃ¶r","k"],["ĠSecret","ary"],["Ġcitiz","ens"],["Ġpaint","ings"],["Ġrar","ely"],["ĠAfgh","an"],["ĠYug","osl"],["Ġdens","ity"],["i","ec"],["Ġ","ir"],["Ġw","ings"],["Ġs","ter"],["Ġc","red"],["ĠH","annah"],["iv","a"],["Ġor","ient"],["Ġle","vels"],["cl","es"],["ĠCon","c"],["Ġcons","ervative"],["ĠAss","oci"],["Ġinter","s"],["Ġtit","les"],["Ġtyp","ical"],["ament","al"],["Ġmult","i"],["Ġread","ing"],["ĠLor","en"],["Ġarran","g"],["ĠHum","ph"],["eh","ic"],["Ġfav","or"],["ĠTig","ers"],["9","1"],["9","5"],["or","gan"],["ar","in"],["Ġb","ill"],["es","ar"],["ic","ians"],["ĠS","ud"],["ĠT","ar"],["Ġm","agn"],["ĠB","ald"],["Ġd","i"],["Ġd","ipl"],["ĠP","abl"],["ĠH","ud"],["ĠD","um"],["ĠJ","ud"],["ĠG","erald"],["ĠF","itz"],["ĠW","ells"],["ter","ian"],["em","ic"],["ra","ch"],["ra","ham"],["Ġst","ab"],["Ġst","ations"],["ov","i"],["orn","e"],["Ġcom","ment"],["Ġhe","avy"],["ish","n"],["Ġch","annel"],["ĠAl","d"],["ĠAl","ess"],["Ġy","outh"],["ĠAr","ena"],["Ġsh","opping"],["gh","ts"],["ten","eg"],["Ġmov","ements"],["Ġ7","3"],["au","kee"],["Ġatt","empt"],["ĠMc","L"],["by","terian"],["ĠMal","m"],["ĠAll","an"],["stit","ution"],["ĠPol","ice"],["Ġmin","utes"],["ĠMon","teneg"],["ĠSch","w"],["Ġorgan","is"],["Ġ181","5"],["Ġshow","ed"],["Ġconf","ig"],["ĠAnn","ie"],["ĠVictor","ian"],["Ġfunction","al"],["ĠOt","to"],["Ġtransl","ator"],["ĠBrad","ford"],["Ġship","s"],["Ġinvest","ment"],["Ġartic","les"],["ĠSlovak","ia"],["Ġweb","site"],["ĠVenezuel","a"],["Ġamb","assador"],["ĠAmaz","on"],["Ġpseud","onym"],["Ġbotan","ist"],["g","ely"],["on","ents"],["or","al"],["Ġs","af"],["Ġf","ood"],["Ġc","am"],["ĠD","raft"],["et","o"],["ad","d"],["Ġn","ature"],["ac","he"],["ĠV","ic"],["ĠCh","ampion"],["ĠU","s"],["ap","ed"],["ĠAl","p"],["Ġsh","are"],["Ġro","om"],["ens","is"],["Ġfl","ight"],["Ġlar","gely"],["ows","ki"],["Ġold","est"],["Ġprom","ote"],["Ġpos","itions"],["arg","ed"],["Ġcrit","ical"],["Ġcop","ies"],["Ġsyn","d"],["Ġcondu","cted"],["Ġemb","assy"],["Ġmot","or"],["Ġcontribut","ions"],["1","3"],["l","it"],["in","yl"],["it","ude"],["Ġc","all"],["Ġc","ell"],["Ġc","overs"],["ĠC","ov"],["ĠA","er"],["ĠA","ra"],["ĠM","D"],["ĠM","ig"],["le","w"],["le","en"],["el","ong"],["ĠP","ictures"],["ol","ly"],["ĠL","omb"],["Ġl","o"],["ĠN","g"],["ĠG","ate"],["ĠF","let"],["ĠF","ellow"],["ut","ral"],["ĠK","ey"],["Ġth","in"],["Ġal","gor"],["Ġv","inyl"],["Ġpro","ced"],["ĠV","ik"],["Ġde","leg"],["og","ue"],["te","xt"],["Ġsh","orter"],["Ġab","brevi"],["Ġfilm","ed"],["Ġri","ghts"],["ĠBar","cel"],["ĠAnd","rÃ©"],["Ġrel","ocated"],["Ġrepresent","ing"],["ĠVal","encia"],["ĠNor","wich"],["Ġne","utral"],["Ġ181","9"],["Ġprogram","ming"],["ij","u"],["Ġocc","urs"],["ĠÃ","ģ"],["Ġcross","ing"],["ĠOld","ham"],["ĠJeff","erson"],["Ġconstru","cted"],["Ġteacher","s"],["ĠRod","rig"],["ĠTra","il"],["ĠZh","ou"],["Ġflow","ers"],["Ġtwent","ieth"],["ĠTrin","ity"],["Ġjun","ior"],["Ġequival","ent"],["ĠTog","ether"],["Ġpossib","ly"],["Ġdise","ase"],["Ġwedd","ing"],["ĠHud","son"],["ĠCov","ent"],["ĠFlet","cher"],["ĠBarcel","ona"],["R","A"],["p","art"],["ĠT","ot"],["Ġd","ism"],["ĠR","ang"],["Ġre","quired"],["ĠN","eb"],["em","ann"],["ĠIn","t"],["Ġg","ot"],["Ġse","ems"],["Ġch","ann"],["Ġform","ation"],["Ġqu","ick"],["Ġnort","heastern"],["ĠSm","all"],["Ġmat","ches"],["Ġtechn","ology"],["Ġfeat","ured"],["Ġfr","ont"],["Ġgrow","s"],["ĠDef","ence"],["ĠMoham","mad"],["ĠPabl","o"],["Ġchann","els"],["2","00"],["M","A"],["h","av"],["n","Ã¡"],["p","ut"],["Ã","ª"],["Ġ","ult"],["Ġt","ens"],["an","es"],["or","ation"],["as","is"],["Ġf","res"],["Ġf","ire"],["ĠS","as"],["Ġp","en"],["ĠM","ov"],["ĠM","all"],["ĠB","un"],["ĠB","ian"],["ĠR","ain"],["ĠR","eal"],["ĠP","and"],["ĠP","ey"],["ĠL","ut"],["ĠL","ars"],["Ġl","ik"],["ĠD","J"],["ad","le"],["ĠN",
[...]
